60
1D
1F
4C
0B
F0
81
2E
DE
46
F1
1B
A7
39
EB
E7
D4
74
61
B6
8C
44
8E
EE
19
FA
A6
81
CB
A8
F0
64
F2
65
6A
CC
2B
A3
47
ED
4C
01
5C
11
F4
81
46
4A
08
C4
00
0A
A5
BF
58
4D
F2
81
8E
F7
44
25
E2
EC
2A
38
3B
A7
10
E4
E6
D9
00
F3
FD
81
1E
01
DD
A5
4F
EF
9C
FB
D2
41
8E
1E
B6
81
A9
D7
F4
57
C9
E6
B5
07
2C
81
53
22
1C
B5
EC
01
97
97
EE
46
2F
AD
32
1B
42
18
9B
27
5D
52
FD
3E
81
1C
44
16
05
4F

