FF
EA
DA
2B
1D
2A
F6
12
DA
D8
14
2C
F5
E9
29
15
10
E8
E7
17
ED
2D
E2
09
07
DA
1A
FD
01
17
1B
05
FA
2B
1C
FD
24
EC
F5
13
FD
00
15
F8
0C
17
07
23
20
E2
F3
FB
2B
FF
04
D9
CF
FC
E4
09
D8
FC
15
0D
DD
26
DD
D7
DA
19
12
DE
21
F5
F2
0A
24
EE
E5
FD
E4
07
E5
15
1A
0B
04
1C
D7
27
DB
1C
E5
EA
D4
07
01
FD
07
28
E8
E3
24
1B
1C
0F
EC
15
18
DB
D6
04
1E
CF
F4
2E
D3
27
DE
0B
D0
13
DB
FD
E1
29
E9
E6
CF
DD
01
E6
01
F1
E8
E1
F4
E7
0F
D5
2A
EF
DE
F3
E7
FE
EB
E5
F2
D5
17
D6
21
F5
27
E4
E6
14
EE
05
04
DE
0E
FC
13
1A
20
D7
13
DC
F3
FC
F8
EB
FB
06
D4
2D
ED
18
EF
EB
ED
DE
D0
29
FF
2A
EB
EF
13
02
E9
02
14
2E
13
EE
D7
25
1B
FF
06
13
F6
06
F4
13
F7
EE
0F
DD
D5
11
C7
0F
DB
E9
1F
28
D4
EA
08
F5
FD
E0
0E
10
D9
19
11
D3
E7
08
FF
DE
EE
F4
E5
15
D1
FD
22
DC
0E
08
F7
21
02
CF
D0
D5
DC
06
E1
E9
27
0A
D9
F1
0E
F4
FA
25
EA
28
E0
DE
11
F6
FD
F0
D7
F7
EE
F7
ED
04
17
E6
FD
EB
00
F8
1A
03
DF
05
0B
E8
21
06
00
F5
08
DB
E2
13
1E
FA
FC
F4
F3
D9
2B
ED
0E
D8
EE
17
05
09
F8
E3
1A
D8
07
E8
1D
28
27
11
26
FF
27
18
E8
0F
07
FA
18
2A
13
0E
27
26
E3
F6
14
16
01
0D
0C
D6
E2
ED
06
0C
05
D4
D5
07
D2
DB
EF
05
00
0F
22
02
16
EE
27
15
1F
F2
D0
EF
FD
DE
00
20
03
1A
19
01
E3
08
1E
E0
D9
E9
03
1D
F8
04
E6
0B
1A
14
2A
DD
23
DB
23
20
F8
F0
F0
04
1F
DC
EE
FA
F1
F3
D3
01
12
CF
19
D2
05
2A
18
F1
21
06
1A
06
EC
E5
D8
E3
05
F4
DA
1D
29
EC
23
F6
04
ED
DF
DB
1E
EA
29
F3
DF
17
CE
EC
EE
EC
18
01
0C
D4
0B
0C
D4
08
F7
F4
DD
EC
0F
D5
1F
D9
D9
E2
16
FD
29
1D
DA
16
F6
FD
DA
27
0D
D8
23
EC
DD
EF
FB
DE
1B
D9
09
D1
19
D3
19
FF
E9
0B
20
D8
FF
05
27
1A
FD
FA
D5
22
E0
17
28
12
CF
EC
DF
1B
D5
10
D6
D2
1A
E1
27
CD
14
E2
27
09
D2
18
D2
0B
F1
E9
E8
1E
1A
07
23
16
08
EE
0E
F0
E4
F1
DF
FD
D8
13
DE
F7
09
CD
E2
14
02
E9
DF
E0
23
02
EF
EA
07
EA
DB
FA
D1
D9
F6
11
21
06
28
D4
10
F8
06
D5
29
26
DC
EF
F1
13
11
FA
DB
E6
14
F2
DD
E2
2A
04
01
FF
FC
23
0B
FA
E9
E1
CC
17
F8
C8
22
20
01
F2
CE
16
26
0B
D4
39
22
03
D9
E2
0B
E6
06
E4
28
32
02
F8
F2
E7
1F
F8
01
DB
16
D6
D2
17
E1
E9
EA
26
DA
E1
FF
D6
FC
C6
09
13
DD
FD
F1
DE
09
F3
1D
03
C9
F8
F3
10
1A
E2
CC
06
DD
D7
1E
E3
FB
CB
F5
19
FD
04
CA
D0
08
E0
D1
25
FC
F4
1B
FD
0F
24
37
E4
05
23
E1
DC
19
F4
1E
CF
EF
E7
2F
F8
0B
F0
F0
32
24
ED
28
02
13
08
DC
07
17
FF
24
1A
ED
ED
1C
CE
F2
12
15
E7
18
0D
DE
DE
23
D5
22
D6
E6
19
01
E6
1F
0D
FD
D0
D1
EB
F2
08
00
28
2E
F0
0A
E2
F2
04
E6
09
25
D5
EF
23
17
D9
06
F7
04
FE
E1
0D
F9
0D
0E
18
EE
25
0B
EA
DB
F0
FD
17
F5
D9
2F
FD
DD
FF
E0
F2
00
33
1E
FE
E5
1E
2E
1E
10
31
F6
09
B8
F9
18
F8
18
F7
D6
F4
05
11
DB
1B
23
DF
FB
1F
0B
10
22
E8
08
1F
C9
09
1B
F1
1D
2A
1A
0F
1F
1B
18
0F
D9
DD
EB
04
E4
E0
EA
D4
08
15
E4
11
00
20
2F
0F
0D
F5
01
F8
2D
13
08
18
24
16
F0
09
E1
F0
19
05
FE
02
F9
F1
07
0D
F2
10
CF
2B
28
12
2F
F9
E0
01
E4
D3
F9
D9
0D
13
E3
10
CC
12
F0
0D
0F
F5
D3
D0
1E
2D
E3
E8
07
F8
ED
F3
DF
1E
E7
35
17
D1
23
F4
2C
2C
22
04
34
1E
13
C9
1D
F1
2E
40
EC
EA
E6
F5
D1
D7
FF
06
F6
02
EA
F1
09
F7
01
1B
12
F5
F0
16
F0
02
F3
02
FF
EB
E2
CE
1D
2C
36
CA
2B
2E
D9
E0
E2
13
FD
2E
00
E1
01
E2
0C
F8
00
D2
DE
EC
F6
FA
D3
DA
EC
DB
18
15
DE
DA
D3
F5
F0
24
ED
EF
00
F2
ED
2D
05
E9
15
45
1B
FA
E0
20
1F
E6
E8
FB
18
17
D7
2F
18
11
27
0D
25
20
28
D9
23
F5
F6
EA
18
10
20
D7
04
1D
1C
22
C2
1C
13
2C
20
0A
05
1A
A1
0D
1A
F5
0A
FC
16
1C
E8
1B
0E
32
26
1B
ED
D8
E6
1F
C9
F7
E4
E5
2A
04
E2
17
17
F5
21
03
CD
E7
F9
14
E9
F5
33
EE
F3
29
1E
1B
0B
F4
03
11
FB
F5
24
06
07
E4
2F
2C
1D
03
DB
0E
C0
26
0E
E5
E2
23
D7
11
26
20
E6
F2
0B
26
D1
F2
E6
FD
20
F7
22
26
E1
18
0E
FF
F7
F5
1E
E6
E9
F2
D4
D3
03
0F
04
DF
EC
29
D9
0C
F9
00
0E
E9
E4
E7
F0
C7
DE
E1
23
E4
FE
CE
08
E3
10
21
FD
1F
31
2B
E7
E6
15
F9
E7
13
FD
17
EF
DC
1B
EB
19
2D
DC
24
E7
1F
05
E4
05
0F
E6
2D
14
FE
E4
1B
13
E8
DA
FD
16
10
27
1C
07
F6
F9
23
D9
D4
DB
EA
1D
05
1F
DB
35
CA
05
CC
10
16
17
24
00
DE
0A
CF
15
CB
03
19
D6
FC
12
FE
08
06
09
D7
02
01
0A
0E
37
0C
1B
30
30
E2
35
DB
10
EB
EE
01
09
EA
15
EC
0E
23
2A
0B
1D
2A
11
09
F7
36
D4
FA
16
27
E1
00
DE
10
1A
05
D9
08
06
2D
DA
20
33
28
31
11
F9
1A
09
EF
EE
DF
F2
0B
1C
1F
25
20
1D
16
EB
EA
29
D9
01
D0
09
EA
F0
11
DF
2C
ED
1D
C0
F2
0F
15
1D
F6
09
11
DA
EE
ED
09
DF
11
18
23
DD
E9
17
ED
04
EE
FC
E3
ED
20
19
22
07
F7
09
25
14
ED
2A
1C
10
F6
08
09
07
F6
29
F7
EC
ED
25
0B
14
24
19
E9
ED
34
E5
0D
E1
20
26
13
21
F3
37
2A
1D
EC
2D
07
ED
E0
ED
FB
F4
21
ED
F8
0F
24
F7
E4
32
DB
FD
00
F0
08
13
D0
E9
1E
FC
E4
17
1F
D3
11
CE
22
FE
F5
1F
F1
DE
C5
E8
FC
D1
0B
10
FE
17
F1
D1
EA
1C
E6
0F
EA
0E
EC
E1
25
27
EE
F1
FD
E5
0F
CE
E6
EA
24
F5
23
1B
1A
2F
FD
0C
E2
0D
EC
27
F6
1B
1B
14
0D
1F
FC
0A
27
10
E2
18
EC
30
DE
0B
E6
2D
F2
DC
1C
C9
EB
BF
F5
10
18
2A
2B
03
F7
E2
04
E3
C5
26
0A
06
00
DE
1E
19
1F
F9
D5
CD
D6
17
28
FC
05
19
0C
FA
E1
08
08
D5
33
22
01
24
E9
03
0E
05
36
02
EA
F8
23
21
F7
26
2E
F7
E7
EF
47
0C
F4
1E
EE
F1
EB
1B
FE
F8
E8
F8
C2
2F
1D
F3
2B
E4
E9
FD
0B
E5
FC
12
CD
D4
FC
F9
D1
DC
D3
E5
FA
0A
11
EA
26
DB
FD
C9
19
E2
CE
08
D0
E8
15
17
E2
16
33
F2
29
E7
BF
E3
D1
0B
1F
30
E7
FE
13
E5
F5
EF
05
FF
39
11
3A
EB
19
F4
15
2B
01
E3
FE
07
D2
E3
2B
40
0F
F1
13
17
FE
D8
0F
37
C0
E7
0B
E5
D1
F3
E1
1A
09
17
23
19
13
31
12
18
1F
44
D9
21
E4
E5
E3
06
FA
39
05
30
F5
0D
11
02
3C
F9
F2
14
F8
D8
E2
0B
D6
12
ED
EE
ED
FD
DB
2C
01
52
F7
F8
03
05
E9
DD
EB
10
E7
08
20
08
EB
E1
06
F2
0B
EC
D7
CF
0A
2D
DB
23
F1
12
26
FB
32
03
1A
03
08
12
40
06
27
02
F9
05
1D
18
21
29
FA
05
FB
D5
09
0F
21
28
09
09
F6
EC
25
F5
2E
E2
0D
F0
E6
00
25
01
F0
35
04
01
06
0A
D3
15
FA
E8
EF
E0
05
EE
05
19
FC
0E
F9
1A
2B
12
EB
FC
F7
F9
E4
09
DF
26
E6
02
21
E3
DB
11
12
F6
EF
23
D6
E8
C7
16
17
17
27
EC
07
F8
24
D2
10
25
EF
E1
04
20
E3
E9
E2
1C
FD
26
E4
2A
24
02
0B
D7
19
29
D9
F3
FC
17
F9
29
23
F4
22
13
26
F8
FE
FF
F9
02
0A
2A
D8
F9
E3
1C
2C
21
1F
17
0C
FC
E5
0D
D7
E1
D9
0C
01
1F
D9
21
19
1F
03
1A
EB
2B
19
DC
1E
FA
DD
E4
E6
08
2B
FC
0C
F4
DD
02
08
39
23
02
28
07
FA
F6
05
E1
17
20
01
F3
DC
1F
18
E1
03
25
ED
D8
DC
10
E3
D4
EF
12
FF
14
DF
0C
E4
FC
E1
1E
0C
15
D6
1C
F8
D6
16
17
1A
ED
02
EF
D6
12
D4
FE
03
F3
EF
21
E2
E7
FE
24
E5
EC
DE
10
19
F2
F8
DC
F3
CC
12
F8
F8
23
25
F4
1D
21
16
2A
2B
26
11
19
39
22
16
EA
28
08
E8
F6
0A
EB
D5
1B
EE
3F
01
1B
08
2A
15
DA
FC
D6
0D
C1
EF
05
0E
26
E2
D6
2D
D8
E4
E0
03
F5
0A
DB
0B
F4
08
0C
E4
0C
DD
F7
28
D9
23
18
19
0A
27
EB
22
10
29
DE
00
E5
24
FD
18
05
EA
02
19
E7
20
EB
FF
27
EF
22
ED
F0
DF
EC
10
2B
D8
27
F2
0B
25
0A
EE
23
19
F6
E1
22
EC
DD
DC
D8
0D
DD
F0
28
DC
27
2D
0A
05
1F
D3
21
25
E8
DB
D2
12
E7
DF
E7
E2
DE
0F
CF
DF
2A
02
FA
1D
24
D8
FE
12
DD
FD
D0
E1
1E
0D
F4
01
F9
F1
EB
F1
DB
F7
E6
02
E7
05
03
D3
E2
F7
00
F7
FA
D6
20
FC
DC
D8
F3
E2
F9
D7
FC
EA
E0
D1
E0
14
03
06
12
DA
2F
E6
1C
D5
FC
DA
DF
EF
22
E2
FA
07
DC
F0
25
07
F3
DB
28
EC
F7
08
ED
EF
FD
F9
03
E4
E4
08
D1
E5
22
F3
2D
28
1F
F0
29
02
E2
E8
05
DF
D3
02
F6
00
33
05
13
E8
0B
2C
E8
D2
07
12
D2
EC
0C
E5
21
F0
26
21
F4
09
13
16
04
F1
DE
E5
CA
02
0B
D5
22
E8
C9
20
26
00
21
D7
CB
FC
1B
D0
1C
03
E4
05
E2
02
D7
31
E1
DE
D5
0C
F3
DC
FB
DA
EF
DE
1E
09
EC
1A
19
EA
CE
29
CD
18
EC
05
26
1C
38
16
DA
D3
15
EE
33
F6
D3
2F
27
EE
06
0C
E3
FF
0A
0A
E2
26
22
FC
04
00
13
E7
20
FE
1D
FD
E2
11
E9
E2
ED
0C
E8
E3
18
F6
08
E3
EB
DF
07
E5
D8
1E
D8
2E
D7
03
30
00
F2
03
E9
27
04
1B
15
FE
38
FD
0A
E3
0E
ED
1B
F8
14
36
40
1B
09
34
E7
EE
F1
12
0E
F8
23
E3
24
0B
F1
E0
0D
24
08
02
DB
EC
28
F0
1E
FE
0A
06
12
FA
E0
21
F0
22
CE
F3
0B
01
27
16
25
1E
1E
CC
06
E9
07
DF
D7
DD
31
1A
03
17
EA
D7
0B
EC
F5
38
E1
FF
19
EC
F3
DC
34
2D
0D
18
F8
0D
CC
05
20
15
D7
08
27
25
EF
0B
D0
E7
EB
2D
F9
07
EA
0C
44
23
29
1C
06
08
01
0D
FD
FD
21
39
30
26
1C
ED
29
D6
E9
31
0B
1F
13
04
FA
14
E2
06
F1
19
E7
04
1F
D8
14
08
0F
FB
D9
D9
D9
0B
F2
EE
01
E2
E6
1D
2C
1E
09
EF
17
0C
D9
E2
F5
0D
DC
29
10
1B
E3
00
29
2B
13
1F
E2
11
ED
D2
DD
DE
D9
0C
DB
E4
2B
2A
29
F8
DC
0A
10
16
08
EB
E0
29
FA
DC
E0
1A
DE
DA
E1
D4
DE
12
16
06
DF
09
11
E3
1F
FA
EA
FE
20
EF
11
F9
13
E8
FF
1F
EC
FE
14
D7
1A
13
2A
E1
D5
00
0E
31
E8
E7
2F
D5
E3
EB
25
D3
E2
21
FC
08
08
15
2B
C8
11
DC
D0
10
0D
1B
DE
E7
DE
16
E8
0B
0E
D6
F6
EB
0E
16
F4
0F
05
14
F9
1E
06
F0
F7
17
10
0B
D1
2B
E4
ED
23
E4
00
10
13
12
F9
DB
D5
EF
F0
E1
DD
1B
E8
CC
E1
29
FB
24
04
FB
D7
10
03
10
E6
CB
FB
EA
0D
D9
0A
2E
C0
2C
E1
FF
FB
F2
0C
10
0F
25
0D
E6
2D
0A
E0
07
E2
FE
F5
DF
E2
CD
E2
27
FA
02
D9
EF
E0
01
FF
0C
FC
E5
D0
E0
D0
22
DB
E6
38
1A
16
DA
22
09
F2
26
EA
FE
DF
0D
EB
E2
11
07
E9
02
F2
F3
F6
28
1D
23
2D
19
08
03
2C
FB
0A
EB
09
00
04
0C
22
F9
30
08
F2
18
0C
DE
ED
07
10
DD
14
09
D5
2E
E6
1E
11
FD
E0
F9
0A
CA
C3
E3
1E
02
31
D7
C8
10
DD
18
ED
5B
E5
09
1D
12
F3
09
06
E5
DC
D1
03
30
12
FC
FF
F5
05
CD
03
ED
E6
F0
F1
EE
D5
16
DE
0F
21
FF
18
F4
F3
D9
C2
F9
01
E6
D8
02
29
19
F9
E1
F8
09
D6
E2
F4
DE
11
03
1B
D7
34
0B
35
25
0F
EB
00
FA
FC
FE
04
FD
40
F6
F4
F9
2F
49
38
E6
12
1A
24
E3
2C
21
D8
DA
1F
0D
2C
D4
3C
25
F1
20
02
26
FC
F1
11
07
23
31
E2
05
E0
E6
DA
0F
01
24
FD
1F
E7
2A
01
19
EB
0D
08
1D
E4
05
22
E3
09
0D
0B
F3
0E
09
01
1F
10
2A
0C
EF
EA
2F
E4
1B
EC
2F
03
F8
E3
D4
29
E2
2E
09
2C
05
17
EC
12
0B
FA
EC
D6
0E
17
20
E4
15
23
06
20
F6
E5
13
1A
E7
08
D3
FA
D3
D9
DB
DA
14
26
23
05
D6
2A
2F
0C
E9
FB
12
2C
0B
13
28
25
E1
DD
ED
F1
06
19
D7
12
EA
F8
E7
24
20
E4
E1
EB
F5
E4
FE
EC
24
25
10
ED
FE
10
0A
D5
02
13
F2
DC
0F
D1
DF
08
18
DB
DF
22
C6
F8
C9
18
07
11
D6
D7
F2
FD
F5
07
E1
25
DA
11
14
18
DF
EB
13
22
D2
DB
12
27
D3
09
12
1D
F1
1E
ED
E9
D9
1C
08
D4
F1
2B
FE
1E
2C
E1
F1
03
17
0C
DE
F6
EE
E1
E2
F9
02
15
F9
07
F0
CC
24
DC
EF
D2
EC
CA
D7
08
E4
15
F6
1C
1B
DA
21
10
DB
1F
FF
03
09
D8
E5
C6
0A
E5
D9
1A
05
FF
FF
CC
F3
0A
D5
FF
EF
F5
00
F5
F6
CB
06
02
D1
F1
19
DB
D7
D2
FD
D6
12
D8
F3
05
08
F7
FB
20
F3
C9
DF
DA
DC
17
12
DC
23
E5
FE
16
F6
03
DA
F1
19
E7
D8
1C
D9
F1
11
07
10
0E
12
E6
E5
D8
C9
D2
15
DA
F3
13
0B
D2
D3
17
04
D8
CF
DA
D6
CB
14
13
ED
D8
D6
F3
1F
07
E6
04
17
2A
C5
D0
DB
E7
EF
DA
EB
C8
08
16
D9
FA
16
08
CE
E8
09
E8
FE
22
18
0D
F2
FD
28
D4
20
02
0F
19
FA
26
22
F8
FF
D3
0D
0F
17
1F
21
E1
D8
EE
F0
FE
04
16
CF
2E
F7
07
D7
E7
D8
CB
0C
FE
D5
DD
F3
EB
20
ED
07
DC
E6
C9
FC
EC
0F
D6
D3
14
1C
D5
2E
02
E5
E1
D7
05
E1
D5
F8
D8
ED
19
16
EE
FD
CB
1F
F1
FC
0E
F0
D6
E2
06
EF
1A
15
CC
D3
15
D7
D3
0A
DB
19
EE
09
F7
FB
01
E2
F6
F3
D5
07
1C
CE
E7
D4
2D
06
04
18
F0
EF
1D
F2
FF
EF
09
1B
C6
1B
EC
E4
1C
F6
1D
D5
CE
E4
FC
DC
EB
EC
07
D5
CC
21
11
F1
DF
D0
D9
E5
15
E8
DD
10
E2
D8
06
D5
24
D1
FA
F5
25
07
26
C8
FA
10
EF
D9
E0
F2
2E
05
C8
E8
0D
CB
0C
19
EA
FF
11
E2
FE
15
FC
18
F2
16
05
F2
CD
19
D0
1F
02
C7
D6
12
F0
DD
18
EC
1B
F8
1A
10
F7
DF
D4
E1
E0
F0
06
24
DA
E4
16
2B
00
EE
1A
13
E3
02
0D
1E
09
F8
C7
00
1E
ED
E2
FA
03
0E
EF
C9
D7
02
D7
0B
FA
F9
09
11
D5
DB
19
DB
FC
E4
FB
19
EC
D2
F9
E0
E6
CF
13
1D
CD
DF
D5
DC
EC
23
E8
FF
C7
0E
F0
F6
06
F4
FA
06
E1
E1
F1
22
25
1B
08
FE
DE
EB
E3
07
0A
EF
DB
18
DC
03
14
09
27
FE
01
01
1A
18
F7
FA
1F
01
E4
03
2E
D3
09
22
D7
E1
25
1F
D9
F8
D5
FA
14
17
2E
F9
E4
1C
2D
E2
F3
1C
E0
E8
21
EE
21
F4
E4
FA
D5
D8
0B
17
EA
14
08
EC
E9
DC
DB
CE
F7
FD
F7
10
DF
15
D4
2B
D6
EC
07
ED
13
21
EA
16
EC
09
D1
D9
F2
D7
1B
0D
D2
27
12
04
FB
ED
14
27
2D
11
1F
EA
2C
25
E7
26
2C
E4
0C
15
0A
F4
1D
1F
06
17
EF
0C
14
28
F1
E9
FC
F0
D5
EC
23
E2
D8
DD
EF
D7
17
EB
DC
2C
DE
D3
2F
2B
E5
D4
04
18
D4
D2
D3
00
DF
1D
E7
D5
26
D4
14
0E
0B
E2
14
2C
D1
F6
FA
D0
2A
20
F0
DB
D7
F6
DA
1D
E7
06
2B
0C
F7
19
DE
F1
01
E5
F3
F5
1B
EF
FC
E6
16
19
DD
F8
D7
E2
E6
2D
E2
F4
F3
E8
0B
D7
DC
FD
1C
F7
11
E6
2B
29
0D
D7
E7
F3
EA
00
07
14
DC
D7
12
06
07
02
F0
2B
2D
D4
DA
03
00
1F
29
F3
D7
EF
E1
1C
D1
1E
20
25
02
D3
14
F4
0D
D1
12
28
F4
D4
20
0B
21
1A
E6
01
F1
05
EF
D7
2E
15
18
D7
EE
E2
D0
F4
FF
0B
14
CF
DA
0B
E6
E5
1C
DD
E9
18
FE
F1
D7
D3
F5
2C
1A
DC
2F
0F
F7
DB
E8
EE
04
EF
07
1D
FE
FA
E3
01
13
FD
25
0E
25
17
F0
03
E5
F8
E3
D3
D2
1B
1A
FD
2E
DA
E1
03
ED
14
09
D8
0F
E2
01
05
20
E5
FF
28
DF
0C
D9
ED
D5
00
F1
E9
D6
1F
28
F3
12
0B
DF
E9
E2
21
1E
0F
08
EF
F3
00
D1
2B
0F
E7
16
FA
04
EC
16
28
0A
2A
EA
00
1A
1A
0A
ED
E4
03
E5
2B
00
D6
24
E2
E6
06
E1
0B
E2
FE
EE
05
F3
D4
25
14
E5
F8
21
23
05
F9
02
22
05
D0
FD
DA
1F
D9
0E
20
1E
00
09
E6
D3
0F
DD
11
02
F5
D7
0D
D2
ED
D6
28
F5
F8
D9
F0
0E
15
F3
1C
ED
EC
FE
D4
F9
10
F4
F0
24
01
D1
03
12
D5
EB
F9
EF
03
EB
0F
EA
EE
D6
19
D7
D4
27
FE
F0
1A
E4
CF
21
26
1E
E6
0C
F7
08
EC
2A
E0
D7
FC
D4
11
EE
FC
1C
06
0A
F5
28
D0
17
D5
0D
22
2B
0F
25
DF
04
0A
00
2C
24
2D
20
E7
E7
F9
E8
DC
ED
D7
2B
29
FC
FB
E9
D6
D3
E4
01
DF
EE
18
F9
DA
DF
07
F2
EF
07
09
D6
21
E2
05
F7
1A
EB
0B
11
F3
E0
D3
EF
FB
19
06
04
D3
FA
E1
14
D9
EC
25
21
EE
21
CE
EA
2B
18
FC
F2
EB
1C
26
21
01
FD
11
0E
2B
1E
DE
E4
D8
E4
22
CF
0C
11
E3
1C
0A
F5
F1
FA
2A
F0
D4
CD
04
16
F4
F2
D8
D3
FC
E7
01
D7
FD
17
1B
08
E1
08
1C
D4
D2
03
18
D6
06
CF
D3
E8
21
D3
24
FE
05
F1
0C
DD
DF
0A
1F
E2
D8
F1
FE
11
1F
F4
F9
FF
25
DA
12
18
28
09
26
DF
EF
C5
C4
F0
0E
E5
25
1B
24
0B
21
EF
12
24
03
D9
E9
0D
12
CB
19
E1
CC
E5
D0
E2
21
E0
CC
D9
14
21
D0
CB
E0
FE
1B
14
E1
EF
F1
0F
E9
F6
F9
17
FD
FB
08
03
EB
E2
42
19
D5
02
D7
21
F7
1B
13
08
1D
E7
2B
46
35
DD
FC
EF
E1
E6
FB
E5
D0
31
CD
17
D1
FC
EF
14
04
23
29
FF
F4
15
E5
0B
0C
09
D6
29
D8
E3
F9
E9
1B
24
C7
D3
25
D5
05
19
06
CE
17
D2
FA
D9
22
19
1C
29
29
02
14
ED
E6
0D
07
D7
ED
E7
E6
26
16
F2
17
E4
1F
1A
FB
29
E1
E3
05
F9
0B
E6
FB
F4
1F
25
22
07
24
09
2C
EC
FF
2B
F7
00
1F
D8
F8
FE
E8
36
DA
D1
27
29
E8
DD
DA
DE
C3
49
17
F7
17
28
D5
37
EA
21
D1
F5
F8
20
27
E6
23
28
04
E9
D5
21
DE
E9
ED
0E
FA
28
15
F7
D3
2E
09
1C
27
FA
D9
E8
14
01
C9
0A
08
F0
EB
0A
E6
2A
1C
24
21
E9
DA
DB
FB
2C
D0
EE
00
D9
06
0F
E0
1E
EC
D8
01
0F
FB
25
15
F3
17
1C
F0
24
E0
1B
23
01
FF
CE
04
00
23
D6
FF
D9
11
CC
F1
1D
D8
29
DC
E3
F4
07
0C
1E
DB
01
F0
DC
25
01
EC
DD
13
1A
EE
DC
E3
E1
06
1E
0E
F8
26
32
13
1F
19
F4
09
F9
18
18
E1
1A
EF
22
2B
15
1B
E0
E1
11
D7
19
D2
FB
09
D8
14
F6
EE
29
22
0A
E2
06
DC
1C
12
FD
E2
18
E8
12
E4
18
1E
CF
F4
D7
E1
F6
F3
EF
C9
0F
E5
F2
E0
01
DC
11
D1
FD
1F
0C
D2
E3
1F
23
21
E2
0D
00
03
02
C3
10
11
E6
F5
E0
DE
DE
E5
0B
0B
DE
DE
0C
24
DE
22
D4
14
08
11
D0
0A
00
F0
23
31
D9
FB
2E
DF
E4
F6
FC
27
1B
27
EB
E3
1B
15
F8
D5
09
06
00
0D
03
0F
F2
13
18
F1
DD
E1
1E
0C
CF
01
1F
D6
2C
FA
08
D4
F1
18
F5
06
DA
D5
27
E9
F3
E8
ED
15
E4
D8
E6
05
F5
1D
11
DC
E7
CC
1A
1B
F3
F0
05
D7
E1
23
F2
26
0F
F6
07
16
E9
D3
27
09
E2
1B
00
1F
DC
EF
14
DC
26
02
02
2C
F0
21
D1
EA
2C
E9
EB
11
1B
16
D0
E1
D8
2A
29
0C
16
D0
DA
EA
D9
FB
F0
14
1B
11
1A
08
E6
21
00
ED
F7
E4
1C
DC
1A
06
D3
F6
D8
1F
EE
F8
F4
10
07
F6
E8
F1
DA
1F
21
0D
09
E2
FF
12
07
26
24
14
E0
DA
03
02
1C
02
CE
E6
07
F3
D7
F3
F2
17
EB
1B
D5
F5
25
F0
D9
03
17
18
EE
04
D3
D2
FB
1B
18
E1
FD
E6
20
E3
F0
F4
1A
15
0E
EE
10
DD
E2
2A
13
FF
1E
FF
10
D0
C7
23
16
FD
D6
1C
0B
F3
D8
00
14
17
FA
FD
27
DE
E3
FA
E3
E1
D3
30
EA
23
E9
04
34
02
E6
0C
1D
00
23
00
E6
F2
2D
27
F8
E9
FB
EF
23
EC
25
10
07
17
12
D4
EF
1E
11
FB
E2
CD
DC
FF
2C
FB
11
F6
1F
20
08
F6
20
DB
EB
11
E2
E9
1C
F5
10
F3
0F
D7
FA
30
F6
16
0B
25
F2
F9
1E
F1
13
2F
19
DA
E5
1C
F2
D7
14
3A
FE
14
0F
E3
29
DF
24
2D
27
F2
1B
04
02
0E
15
D5
E9
10
0C
F4
E5
21
06
D1
27
24
05
2D
22
11
2D
D1
F2
0A
02
E8
00
D1
3B
F2
EE
EA
27
F1
E3
0B
F4
D0
17
CC
E4
1A
D7
E1
0A
03
CB
E8
E1
CE
1B
EB
F3
F8
0D
EF
15
F6
E0
DA
F4
25
D8
E9
CE
09
F8
12
C4
F3
13
D0
22
16
07
12
DF
1A
EB
19
EE
E5
17
0F
37
0C
22
28
13
2E
1B
F5
11
BE
00
27
EA
00
EF
23
4B
40
E7
07
19
31
04
DF
25
E3
08
DE
F9
16
DE
07
09
12
02
19
D5
02
1F
25
15
E1
1F
2D
1A
E7
39
FF
25
26
F2
13
E2
17
22
EF
FF
EF
05
07
15
09
18
0D
40
30
02
E6
E8
2A
E1
D3
DF
D1
F3
D6
CB
0A
31
2E
CB
47
DA
11
DB
11
2C
05
20
C8
2B
1C
F2
D3
DE
E7
33
02
20
1F
16
DA
EB
13
19
E8
ED
17
16
0B
F7
E9
EE
0B
2E
F3
DA
F8
E6
D7
F8
F5
EB
1D
F3
1E
E8
F7
27
24
0F
15
0A
D4
F0
0D
11
10
5F
CB
F8
26
16
08
2F
4C
19
08
FB
1C
29
03
2A
ED
35
CA
D9
1D
EF
01
20
2A
11
FD
ED
2C
17
E2
13
09
16
EB
04
1C
F1
FA
0B
3E
E2
EF
E1
FA
E4
F0
C9
DA
1D
01
33
11
00
1F
E9
D3
FB
DF
F1
C8
2E
05
F7
F1
DA
21
02
11
19
1E
E9
FD
D3
E5
D6
E5
1B
E7
ED
1E
EA
D0
13
E1
10
1A
E0
F3
1C
DC
30
EF
F8
E1
00
3B
E8
1B
CB
C2
26
00
1B
E0
13
0E
0A
03
D2
DF
EC
F7
22
21
E9
F6
13
E2
E8
09
01
19
DD
2B
1F
2C
07
0F
0E
2E
14
F9
E7
2D
0D
06
22
25
33
CF
EC
20
11
1E
F4
07
13
FF
EF
EA
03
F5
24
00
05
0E
D2
25
F9
CF
DA
22
CE
CA
21
F3
FE
C3
F7
22
DB
0B
17
F0
CC
0F
D0
0E
D2
EC
10
08
09
06
2A
D6
F1
19
21
FE
21
D8
EA
29
03
22
0F
EA
19
2E
D7
15
FC
1A
F0
F4
DD
1F
04
14
34
EB
0C
E5
F1
FB
0D
DF
DD
EB
1C
DB
22
1A
18
26
1B
0D
14
F1
0D
F9
22
00
1C
04
1D
10
F3
2F
FF
E9
11
E1
0F
E7
10
03
1A
31
20
FF
12
E5
09
DE
E6
EA
19
21
D5
DD
E8
28
D6
1B
26
DE
2D
0B
23
1F
D2
FB
EA
EB
0F
10
28
F2
EF
1B
16
D1
D0
11
1D
E7
D4
C5
C7
E5
0C
E0
EC
D2
C7
1A
22
E0
E4
FA
DC
E5
12
F9
2E
14
F7
26
2F
08
F8
09
01
2A
26
19
0C
21
18
2C
E9
19
2F
2F
F1
F0
F9
D7
E0
DD
03
ED
05
DA
1A
17
1B
12
E3
CE
22
EA
F1
06
14
E1
14
DC
02
02
13
0F
26
36
D5
24
0E
FE
0B
F9
11
DD
CE
F0
E2
EC
0E
27
E0
CD
F5
E0
14
07
E3
00
CD
E5
1C
05
F6
DE
1E
FA
F6
E7
FF
05
F3
D8
0B
F3
23
10
08
DB
E9
12
F1
15
11
FD
E6
0D
0B
E2
04
E7
D9
2E
14
3C
EB
0A
07
DC
18
CF
F8
DA
E4
D4
0B
08
E4
F5
00
10
CF
EB
EB
0A
0C
FF
1D
27
F6
D1
06
1E
27
05
08
D8
0E
D0
E4
ED
E5
0E
0A
01
15
05
19
D3
26
DB
DE
DD
13
04
FC
22
F2
04
08
09
04
16
02
F2
13
F8
0D
10
F3
28
E0
14
05
EF
27
D7
E1
30
24
F6
F9
2C
FF
17
D7
24
17
F2
03
DC
DA
31
E3
09
FE
21
CC
19
03
1F
28
CA
E3
05
14
13
00
19
DE
15
DF
1B
DD
FE
21
FE
E5
E4
E0
E5
EB
C2
2D
E0
0F
0B
1D
2A
F6
D0
E5
D5
19
F9
F9
06
F5
DD
E6
2F
06
04
D0
03
17
0E
D0
E4
FA
0E
0E
F4
DF
08
E5
FD
3D
FF
DD
FA
D8
F4
E8
E4
FB
CF
02
10
22
18
0E
03
CE
EC
25
0E
0A
1C
10
E6
F8
BF
F2
F2
3B
FD
2C
01
08
E4
1B
0C
05
27
16
36
FA
C5
D3
1C
18
0B
DD
DB
F2
14
EE
F6
FA
FB
EB
2F
0D
E8
13
E5
DE
07
2B
07
1A
15
E8
13
EB
F6
1C
0A
DC
BF
04
C9
E4
FC
E2
15
01
0A
DF
00
D1
F9
16
21
F8
F2
DE
E9
DE
12
DB
D8
08
FE
18
21
0D
05
15
F8
18
1E
08
FF
07
06
0D
F6
0B
03
FE
D3
21
F3
10
0A
E9
07
D2
EF
DE
07
FE
12
1A
0A
03
22
D1
1F
FB
ED
1F
06
F7
EA
06
F9
F4
07
0A
16
0A
EC
09
E3
20
08
06
3B
F9
D9
23
02
EF
28
00
E1
00
FE
E9
FD
1B
DF
24
18
E0
CD
E6
F2
15
0A
28
15
20
09
24
1D
03
09
F1
F9
07
2D
2A
FC
01
26
2B
DD
18
DB
32
33
16
28
2B
DC
D5
33
EE
E1
08
F5
13
ED
D3
05
1F
F8
45
33
1C
0E
10
E8
05
2B
EF
18
05
FD
24
DD
32
32
F1
F2
1E
F2
23
1E
2D
FC
1E
FD
DF
E4
01
3B
FC
2A
0C
0E
39
23
24
0A
FF
06
29
22
10
EC
FA
F1
0F
06
D9
3B
DB
04
1D
08
FB
ED
00
0D
01
1B
DD
27
17
EE
27
36
04
31
00
D9
D5
2D
F4
09
15
19
11
D9
18
0F
20
14
E4
CE
11
DD
DC
09
E8
FC
E2
06
CD
E8
14
F7
05
01
FC
F6
DA
E9
10
FC
E0
F7
11
F8
DD
1B
FF
2B
F8
E6
10
05
13
E1
EE
0E
2B
04
18
FE
34
0F
24
E5
3A
21
05
E1
E7
F4
E4
EA
1E
ED
F8
23
05
39
20
F3
12
DC
F7
CF
E6
27
F0
D1
DE
EC
1E
14
03
DB
E5
FF
F0
DD
0B
FA
EA
06
0D
F9
00
28
05
F0
1E
DA
0B
E4
08
EC
02
FC
E8
DF
2D
F0
20
00
16
D6
F1
DF
1A
31
F5
EE
2C
D1
03
0A
21
36
DC
1B
33
EC
F5
E7
0D
F0
11
1B
D3
DE
2D
E8
24
DD
FE
E2
F3
21
16
1B
ED
19
E6
37
07
D6
FD
EB
2C
E4
09
16
1F
1B
FC
F0
1E
E3
0F
29
09
07
E7
DC
DD
DC
FA
1F
FC
1F
00
D8
EB
EC
EE
FA
17
0B
F9
D2
10
05
2B
34
DC
EA
E6
FF
16
F8
09
00
FC
D3
E9
27
37
F6
0E
F6
BC
DF
FF
C4
2F
EE
11
04
23
2E
0B
38
1F
36
0E
DC
EC
E4
EE
FB
29
E8
14
3A
04
0C
F5
2E
32
21
02
E6
F2
CF
E5
0F
03
00
0D
FA
1D
D8
26
E3
06
D8
0A
08
24
E0
F4
F3
E6
28
EE
E0
18
13
03
1B
1E
0E
F1
33
0A
D2
FC
D7
0D
04
14
E9
F1
BE
D8
10
E7
F2
D8
D4
02
FA
07
F4
DF
16
23
03
EE
FD
F5
30
EE
E7
03
13
19
C3
0C
DC
D6
04
E8
07
1F
B7
E0
16
F5
E0
F8
09
C8
B7
E2
0D
12
F3
FD
DA
05
D4
20
37
23
01
21
14
DA
0A
30
DB
04
2D
E1
37
E8
F2
20
29
F5
1A
DC
20
0E
DF
2A
FD
07
22
24
F0
EC
13
23
E9
14
11
F7
28
0B
23
31
25
05
DC
F2
EF
06
D3
27
F9
13
DC
D7
0B
31
09
18
C3
DD
31
FE
21
1C
10
F2
26
29
00
23
FD
05
14
FA
F0
08
F7
0D
2B
0F
05
E0
E7
26
D8
2D
3B
34
21
2C
0E
EC
26
1C
29
E3
13
E0
DF
CF
EE
F7
F0
24
36
D3
EE
DE
E4
FC
EF
2B
23
14
24
DC
F1
FF
1E
48
14
E3
12
F5
02
21
F8
20
16
2A
23
F3
1A
16
F5
FC
62
E4
16
0F
FB
2C
D4
EA
D6
24
F2
F4
25
10
E6
F9
DF
1D
F2
05
E2
19
0D
13
F1
01
D7
E1
1F
05
E8
D9
1A
F2
00
E9
EB
F5
FC
D5
E1
DC
E6
11
18
15
D2
EF
E7
DB
08
02
12
F0
DA
12
25
CD
02
D7
01
00
D0
2B
12
25
F5
19
FA
0A
0D
27
23
E0
0F
08
D5
F5
FC
0C
20
1A
DF
21
0B
D6
0B
D5
F9
DC
FE
01
0D
16
EF
04
1A
22
F6
DD
07
FA
08
CD
D6
CA
21
E0
CE
E5
0A
0F
FF
E8
13
D8
09
08
DD
DE
F0
14
D0
11
09
F7
1F
D0
17
FC
0C
EC
CE
CD
20
10
F1
2A
E3
CE
F2
F1
20
00
E0
FD
23
F4
EA
1B
D8
09
E4
14
D7
23
F9
03
D6
E9
2D
FD
03
09
26
25
F2
20
29
F6
11
D3
F4
15
FD
EF
05
E1
E9
EC
16
D0
F9
12
12
ED
CE
23
EF
F3
2B
F0
DA
D6
08
06
16
13
F7
D8
0C
05
0F
1F
13
E9
18
F9
23
EF
FD
D9
FB
F6
24
F8
F7
DC
D3
0B
03
E9
FE
F3
D7
1F
1F
23
16
EE
D4
07
0C
19
F9
1B
E6
F5
FC
0A
00
2E
F1
DA
0F
FD
26
CF
05
16
CC
1F
EE
1B
22
25
20
F5
DB
1E
04
EB
F2
CC
E0
EB
EC
DA
F8
E6
25
FB
E0
10
12
F0
2E
16
D9
20
17
EC
03
17
E7
01
D9
D2
FD
0A
E6
F2
0A
02
F1
E6
F5
DD
17
FE
E8
DA
27
F3
DD
E2
1B
12
1C
27
F3
FC
D7
13
12
F9
D7
0F
D5
00
1F
E5
FC
1C
F1
F0
E9
FA
CC
DC
09
D6
14
EB
2B
CF
23
D8
0D
06
DD
14
F0
E6
19
0A
F3
01
0D
DA
10
FC
FE
D4
DA
23
0A
12
DA
0A
E7
F0
D7
1C
01
0A
0F
0D
CB
23
EA
00
E2
DF
E2
FF
F3
D7
09
E0
00
F1
EB
F9
E1
DD
ED
CF
D2
F7
1D
21
12
F9
D8
E2
26
2C
FE
13
0C
F2
EB
FC
06
EF
F3
11
D7
D0
22
FB
09
0F
DE
0C
1B
19
F1
F9
29
17
D5
20
08
21
D4
08
F7
FF
02
27
EE
E0
EA
E8
21
1D
F2
CE
D6
08
06
D7
EA
F6
ED
D3
22
FD
F8
FC
1A
F8
1F
FF
F5
04
04
E9
00
08
0A
F7
DE
EB
F3
F9
F9
25
F0
E9
00
11
17
26
0D
FD
F5
0C
08
0A
1D
DC
27
09
EA
F1
D4
E9
07
CE
E9
0C
2A
DB
1F
0C
01
FA
E3
03
E4
01
02
0F
10
01
FA
03
0B
F5
F2
06
EF
F5
D7
E4
DA
ED
10
26
03
0F
DB
F9
E5
01
DA
DF
05
25
EF
07
E0
E8
E8
03
1C
15
1A
F0
05
FE
DB
1A
F1
FE
F0
FC
E0
F0
24
FD
D3
03
FB
18
DF
04
22
06
CE
14
F5
F9
D7
E2
13
F7
17
0C
15
FE
DC
1E
02
04
ED
0B
EB
04
0A
E9
DE
DE
E7
F8
07
20
F6
E8
EA
EB
26
05
15
0C
1D
01
DE
F9
DE
E1
F3
FF
FD
25
1D
FE
E8
CA
17
2F
1C
F6
F9
1B
1E
F5
1D
F0
DA
1E
D7
00
D0
CE
0E
E3
F0
E0
25
16
EB
14
19
00
D6
DD
D1
22
EE
D4
D7
F3
00
F0
F6
DD
02
E2
DB
EC
F1
03
22
0B
1B
ED
08
27
D5
2A
EA
1C
D9
D4
2D
E2
1C
D5
D2
02
E6
28
DC
19
D6
1F
F7
E4
FE
E2
DE
D7
E9
FD
E6
F3
04
13
F2
F6
E2
D7
F9
26
04
E9
FD
18
F3
0F
1B
0C
F4
1E
1F
25
2A
1C
1A
D3
EA
D6
05
CF
16
F1
04
FF
12
0B
DE
F5
F6
D2
F5
0F
0A
0B
09
C9
D6
FD
EB
05
E9
2F
04
FB
0C
18
D1
04
D5
08
FE
15
D4
26
E3
14
C8
E0
F4
DA
15
EF
E8
DB
EF
28
13
EC
F4
2A
18
EF
19
DE
F3
EF
F8
F3
E0
13
FF
F9
2C
D4
D7
26
DD
DE
E4
E2
1C
D5
D4
25
F0
D6
02
1D
E3
0E
00
E1
0C
FF
20
E3
FA
12
2A
F0
D7
1F
CB
1B
E1
C7
FA
29
FD
28
13
2D
22
17
DA
FB
CF
1F
02
D6
18
E7
FD
E4
D6
E7
18
D1
D6
18
05
22
1C
E3
F3
F8
E3
DB
E4
0F
E0
1D
CE
22
29
12
16
F7
15
DF
DD
EE
E6
19
01
C9
DE
1B
24
F8
D5
F9
E1
08
03
E0
22
2A
F5
DF
19
0D
E4
07
2E
24
D5
00
DF
D1
EB
C9
D8
FD
D0
CE
E5
11
1D
D3
D8
24
1D
04
0B
F1
D4
16
00
17
F7
19
F2
E8
0C
E5
FB
F5
D4
E3
E3
05
05
FD
D7
E5
D8
F7
05
DC
E1
D4
D3
2A
05
C9
EC
1E
FF
02
03
02
E0
CF
FA
DD
DE
FB
20
0E
00
F2
DA
E8
DF
19
CE
FD
29
DF
17
14
09
EC
D1
DE
FD
1A
22
2D
F9
FD
EE
D8
18
2D
21
05
24
07
05
24
D4
F1
EC
16
03
E1
F0
02
17
14
11
DF
CD
E0
0F
03
CD
15
24
D3
1B
24
05
CC
20
FB
F9
01
24
E9
F5
D3
20
E1
14
E0
22
1F
D2
09
F4
E7
20
EF
25
0A
CB
F3
0F
F3
DD
D8
F1
E9
F3
1F
23
FC
1E
D9
F6
F0
1C
17
0E
FA
25
06
10
18
E5
1F
F4
07
1E
E7
E5
1A
CF
DE
E3
E1
17
E2
2C
F1
2D
EC
F0
ED
1F
DC
F7
DF
E6
F0
FC
24
19
DF
D7
05
CB
F4
E2
0B
D5
08
F8
29
DE
04
DC
06
1B
F6
EB
EA
10
06
DB
F7
00
D3
F2
E6
E3
E1
CB
26
D7
C9
F4
E5
EC
CE
E3
D1
E3
F8
F0
E7
21
E4
07
11
D3
E5
18
04
FD
10
F1
12
F5
ED
D7
21
0E
E2
DD
11
EE
06
E6
DE
CE
21
FC
D4
D2
2C
EC
D3
FE
C4
F3
03
FF
17
DE
1D
EA
E1
D3
10
12
F3
DE
EE
EB
C8
21
0C
02
D8
FA
E3
ED
0A
11
E0
DA
2C
D4
02
05
D0
F6
19
11
D2
01
F2
15
D3
FB
CF
25
F4
17
0C
13
E1
DB
3E
D3
DE
2A
19
DE
06
FF
18
DA
03
1C
DB
13
F7
1D
DB
D1
D4
EE
23
22
16
DF
FF
FA
F3
D3
E7
02
11
0C
F5
EC
EF
EE
FA
F4
E3
BD
FE
C5
D8
EA
14
16
E2
1D
29
0D
0D
D8
03
25
DE
1A
23
E9
41
DC
EB
CD
E4
1B
CE
F7
07
E8
EB
06
FF
F6
1A
E0
D2
EF
E6
E4
09
E4
11
F9
F2
03
3A
E1
36
FD
E0
0C
31
10
1A
0C
1B
F6
DF
1F
13
CE
EE
E2
EE
EC
EF
24
0C
D3
0E
E0
32
E6
04
D0
02
F4
EB
1E
16
D0
06
E3
C5
EC
F0
0B
00
EB
29
10
01
2B
35
DA
06
1D
F2
DC
04
E7
2B
E0
EE
F3
26
E5
13
0F
04
EE
05
2A
F6
16
4B
07
F1
2B
1D
16
15
24
F1
F0
01
18
27
1E
EF
F4
3D
00
27
F9
27
1C
F0
DA
15
DA
22
E5
37
2C
E4
0B
02
CA
20
02
01
23
C5
F9
2E
04
EE
34
DA
F0
16
12
CE
EA
E6
D7
2C
04
F3
1A
EF
37
2D
E1
1E
EB
0B
02
EA
24
DC
17
FC
3F
0C
11
37
0C
04
30
0A
20
FA
32
F4
EF
06
F3
F5
E6
F7
3B
36
20
3C
12
1E
E7
17
E6
17
21
EC
DD
30
E5
22
D9
E3
11
0C
E9
F3
12
FE
FF
0F
E4
22
FF
1D
17
36
4A
CE
EB
15
23
11
36
11
DD
EE
E6
05
42
23
E3
05
01
F7
F9
1C
DD
04
1F
D6
ED
2E
D9
C8
E3
19
23
1C
E1
E9
D4
E9
0F
FE
FF
EC
27
FA
4E
24
00
DD
F2
24
2B
EE
C3
16
28
2A
1E
00
0C
F5
37
D5
F8
07
2E
13
1F
08
D8
CD
E3
14
F7
D6
F4
D0
1B
BF
F9
31
19
17
25
10
33
09
3A
EB
F9
E6
FE
DE
05
08
0D
27
C7
40
1C
19
06
0C
2C
08
02
13
FA
DF
EF
2D
29
2C
C8
E3
0A
38
20
25
CF
32
0E
E0
13
DC
14
1D
1F
F1
ED
E3
21
EC
34
0F
16
33
E9
07
F3
DE
F5
F0
02
E2
F3
1D
FF
0A
BD
F7
EE
BF
DD
CF
BC
C5
CD
07
23
EB
2F
E9
03
15
20
FD
D5
04
13
02
2D
44
E0
17
D8
24
31
20
2A
1E
FA
09
E4
0B
DE
16
EE
DA
E4
00
2A
40
E0
3B
19
05
F5
2F
29
0C
03
FF
23
1F
E2
F2
06
02
28
EB
DF
13
22
2B
E5
F5
E0
E7
E5
E0
C5
33
1E
0B
EE
EF
F1
09
07
E9
E7
F3
05
FE
15
F3
FA
23
E7
FC
FB
0A
26
02
07
20
C7
F1
CC
03
DF
CE
D6
D4
DF
E3
1D
EA
FA
1E
E7
0B
04
0C
14
FC
D4
0F
D7
F0
2F
1C
0B
05
2C
DE
E1
2A
FC
F0
01
0D
E4
E1
F2
E5
01
EF
05
09
06
FE
1C
1F
17
00
0F
EA
01
10
E5
1B
D4
E3
FD
EB
2B
FA
F4
27
1B
27
15
FF
07
E4
EF
FB
DC
00
E4
17
2D
24
26
14
E4
09
F1
DA
F6
06
F4
08
E1
12
29
17
FD
E4
17
1A
18
FB
0E
26
17
DC
FD
FA
F9
EA
13
2E
18
01
F4
E7
29
F9
1D
1A
CE
3F
FE
25
1D
E8
F6
CF
E3
04
14
10
D8
E5
EA
FE
19
04
BC
35
D5
F6
FD
EC
E5
DF
03
09
F1
2B
0C
10
FA
D2
C3
EF
D7
26
E6
38
08
FD
EF
FE
F9
25
1D
07
0F
F5
18
FC
18
24
00
04
01
04
17
14
EF
EA
08
05
01
F4
1E
D7
E5
E4
F1
02
10
EB
19
2A
E9
ED
23
1D
DC
21
20
EA
F4
13
11
F2
F7
F5
EC
C6
0D
E0
E8
20
E8
D0
CD
E8
0E
05
F0
0A
EE
01
FC
2E
0C
21
F8
FC
F0
EF
E8
DC
E0
F2
28
E6
F8
D5
EB
1B
19
EE
E4
1E
06
D7
F1
30
01
1B
E0
EA
00
17
EB
DF
0F
D1
21
DB
FE
3A
40
1D
21
DD
EB
DD
F2
13
26
DD
D0
14
04
CF
04
06
1D
DA
13
12
1B
17
1E
05
35
E5
04
0B
46
E8
EE
39
1F
F7
F9
0B
FC
07
CD
F0
22
1A
EF
ED
10
2B
32
DB
DF
01
19
ED
E3
06
E3
D3
E3
00
0A
06
E8
05
32
05
E6
0A
E9
E5
2A
E1
E9
13
E5
FA
04
08
D5
E9
1E
F0
19
0C
03
E7
30
F6
C0
F1
EF
F5
24
19
EB
0B
FF
D5
F6
F2
FA
E6
10
FD
18
FC
04
34
31
E9
E5
F9
D6
0F
F0
0C
26
F3
00
EE
DA
06
02
17
0C
1D
FF
2C
22
E6
2D
0D
EF
24
FC
26
25
0D
EF
DB
F1
34
E2
DA
DC
F3
0A
E6
EA
ED
20
F9
08
E9
3E
15
E9
EC
14
2B
11
0B
21
F4
14
E7
04
E8
CE
13
0A
00
1E
E2
FB
F0
EE
01
DD
07
02
E9
18
2B
E9
00
2B
15
32
FD
3A
0E
0F
D0
E9
03
FB
0C
E6
E2
14
26
E9
15
EF
15
1A
25
E5
1A
F2
E5
0D
E9
FE
D4
02
2D
10
25
16
F7
F3
09
18
33
FC
05
23
15
E9
CE
15
00
20
E6
0E
FC
10
D5
1F
FA
E4
D1
EE
F8
E9
E6
EB
E1
ED
1D
EA
0D
18
E5
E5
F2
12
F5
F4
E4
F5
F8
E4
22
00
00
E7
ED
14
22
21
E3
1F
05
21
E0
F2
0B
F4
F7
05
0D
16
2D
E5
EF
F0
BD
F2
E8
17
F3
F1
D0
D6
E4
1F
1D
18
2A
DC
21
18
1B
0F
32
FC
18
19
0B
11
D7
1A
32
FB
0D
E6
00
F1
12
25
0A
29
27
09
29
20
2A
E8
EF
34
07
43
3D
06
F8
28
46
DE
E2
06
F9
F8
CE
1A
1F
D9
0B
02
D1
21
E9
10
10
FD
02
E3
F0
DD
13
C7
E0
14
08
F6
CC
05
DC
0D
EB
0D
DD
13
33
E9
DB
E0
DB
EE
EC
F5
FC
16
1C
DF
19
E5
E5
04
F3
0D
FB
DF
1F
29
02
FA
FF
1B
DF
E5
1B
03
E4
FB
0A
15
2D
E2
1A
EC
01
18
E8
DC
EF
14
D4
EB
DB
D9
D7
D0
EC
E1
19
D2
FB
25
03
FD
F5
F0
F7
F4
F3
0B
1D
E2
D8
F4
D0
D3
E1
FA
DA
29
F8
F7
E3
0E
04
FD
D7
C7
08
FB
39
06
28
03
02
1E
ED
18
26
0E
0B
F9
08
0E
2A
E3
F2
DB
D5
0B
E7
FC
0C
F0
06
01
FC
E8
FE
1E
F6
15
E4
07
F8
15
F9
03
0D
2B
F8
0A
F5
25
ED
DA
0A
D1
0C
EB
E5
14
04
28
F4
1D
11
1A
DF
D8
F3
33
F3
EC
32
14
FD
2A
26
E6
EA
F0
F3
E0
09
E4
24
FC
08
D1
0E
ED
12
D4
DA
08
F6
CC
13
1E
30
1B
2C
0A
F0
F2
16
18
E3
26
28
1D
F7
04
FD
09
10
EB
CC
20
19
05
D9
1B
E9
C8
1D
F3
E9
E0
D6
EC
CD
ED
E3
0B
25
E8
10
0F
0D
E5
FF
20
10
FD
26
F3
01
D5
E8
05
DE
09
28
28
EF
FF
FD
1B
0C
26
01
DC
10
0F
C2
F5
C9
F6
D7
D9
DB
16
15
08
22
D2
D8
01
13
EC
E0
E7
06
FE
FF
D8
18
D9
EC
E5
22
FF
1B
C9
C6
07
15
D4
16
02
ED
06
23
FF
11
0F
F4
CB
E9
D4
02
2A
09
04
0E
D8
EA
1D
F1
1E
2C
E7
1D
E3
07
2E
EA
EC
F5
F6
FE
D4
12
09
20
DD
29
05
2C
D6
FC
0A
10
F8
1A
0A
F8
20
EA
EC
D3
27
22
05
EB
1E
FE
10
EA
08
F1
F4
28
0C
13
DA
E6
D9
17
D3
EF
E3
1C
09
FE
E5
C2
1E
1C
DD
FB
E5
F9
E8
DC
D3
C8
08
D9
08
EB
FE
04
F9
16
F7
1A
DA
15
17
2F
F8
36
F6
15
0B
D4
1B
1F
F6
FB
FE
EE
E1
17
27
1D
25
FA
DF
D9
05
14
EA
26
2B
09
08
E7
1E
1F
30
1E
25
E8
22
20
D3
DC
15
ED
11
DA
CE
07
DE
FB
E9
1F
E4
CC
F5
D3
FC
DE
D3
1A
20
DF
E8
F8
D1
F1
03
1C
F5
F7
D7
ED
04
10
CE
1D
00
D5
0E
0C
1D
1C
2B
0F
FE
E9
BC
32
E8
31
1C
E7
29
F2
EF
EF
0D
FD
1B
0C
F3
00
04
07
E3
20
E2
15
F0
DF
00
20
F5
06
EE
DC
20
D4
DA
E1
37
CB
01
E3
E6
19
DC
14
D6
0E
FE
1F
15
3F
02
DA
19
09
23
EB
11
0C
F4
17
D0
2D
DF
DA
DB
2B
1F
28
E0
E7
09
2C
0D
1B
FF
23
D3
1A
F4
D6
22
27
0A
1B
12
F4
D8
0D
11
0D
EF
1B
F1
08
ED
E7
F0
2A
DD
FC
2B
1F
01
12
E3
F6
DF
E6
D6
E0
DF
1A
FB
2F
1B
E7
EC
FB
17
2C
FA
28
1D
E2
DD
E0
F9
D7
F6
13
03
DE
E3
1B
FC
F3
08
EF
19
CF
D6
CF
14
D4
09
06
2C
00
D7
0E
11
0E
1F
F0
FE
F3
10
E4
2E
E7
F2
09
E0
D9
0C
F1
DF
E8
03
F8
14
CE
05
E4
1B
24
F6
F0
17
E1
03
17
1A
2B
D9
F7
CF
CA
07
24
DF
FF
DF
1F
F7
EE
D4
DD
1F
14
09
DE
CD
D1
FF
D5
EA
00
EF
0F
07
F8
E8
00
E8
E2
10
12
FB
FD
E0
18
0A
0E
23
E9
E9
0C
F8
07
E7
FA
12
17
22
03
F2
15
26
D3
E9
E4
15
F1
DC
E3
EE
F5
2A
39
D3
DD
EA
FD
FA
20
E7
2A
16
EC
F4
F8
F2
DE
21
D2
16
F6
E8
FE
E7
EB
FA
04
11
E1
F6
28
DE
FA
F5
E3
DC
D5
E0
E6
FB
0B
CF
D2
13
E5
11
CD
1A
37
36
06
FD
E4
FD
06
12
0F
16
F3
0B
1C
0F
2D
E2
08
F3
ED
FF
09
1E
01
32
D7
1C
E2
DD
20
C7
EE
17
F6
D6
0E
0A
DA
E6
22
2E
0B
2D
DF
DE
1F
12
D8
15
15
24
2D
D7
19
D7
F2
08
2D
27
17
EA
F2
04
EE
1F
09
FB
09
E3
DA
F4
C9
DC
0F
E6
FE
0E
16
01
D5
04
EC
E2
F8
DA
03
E8
1E
1E
FE
F0
F5
28
FD
1E
FF
FD
FF
FC
03
10
09
FA
CB
07
1A
E4
10
DF
12
16
2B
DB
F8
02
F9
F1
CE
F3
0A
2A
20
FF
E0
06
EF
F6
F4
26
EE
FD
D2
0F
06
CF
D8
EA
E3
EC
D7
EB
09
FF
C3
FC
F6
D3
EF
DB
F2
E0
DA
E8
1E
F5
DE
F4
D2
21
D6
25
01
20
0C
D9
2A
EF
D6
14
01
25
FF
F1
D4
21
EA
D0
09
D0
F1
17
22
F3
1B
E6
CE
FF
08
23
1C
14
E1
12
D3
DF
02
05
05
D9
07
1F
DB
D8
FD
D9
06
25
27
04
C4
D2
E3
DB
03
F4
0C
0E
27
E9
1B
DE
1E
1B
1C
F9
D9
22
28
19
01
CF
0E
F4
1D
16
01
07
E9
E6
1D
E2
F2
1D
F2
18
0F
0D
F2
1C
07
00
DE
0B
25
19
E5
07
F4
F9
F6
EB
E5
D8
26
12
2E
18
E3
F9
02
09
03
E9
F6
17
0A
1D
F6
DC
F8
E7
FE
FA
0F
00
FD
27
05
EC
F3
CE
EC
0C
29
0C
17
E8
E1
F9
E6
FF
02
EB
28
1D
E6
DB
F3
D8
0B
DB
E4
E3
F2
29
D9
2B
0D
E2
0D
28
EC
EB
F9
FD
F7
2A
E5
ED
0F
0B
0D
E0
E4
E6
CF
22
CF
09
E6
CC
00
0E
DD
E2
F2
F0
D5
21
DB
09
EE
F8
0E
CB
30
EF
0A
EB
E9
17
D7
FC
FC
1D
FA
02
1E
1C
3A
F9
EA
F0
DF
E3
F3
32
E8
29
EE
EA
01
EA
E3
03
1B
1C
1E
00
0A
DF
C7
06
05
D2
09
F6
D6
03
EB
0E
20
06
EB
02
1A
04
E7
D6
23
0F
0C
2B
29
14
1E
24
F5
F5
DA
1B
F3
2C
D3
04
21
09
2D
EB
24
1F
ED
E0
E4
20
DE
D6
F7
16
28
E9
FC
FA
03
D2
EB
14
CA
F7
F7
E3
14
1C
E7
1C
0D
D7
21
26
C8
F5
0C
0D
2A
0B
0D
E8
FA
33
FC
FD
E1
F1
0F
18
C3
39
1C
02
DA
18
DC
C9
ED
EC
09
2E
0D
E3
EE
0C
CC
33
E6
E2
23
28
D4
E4
2F
CD
06
0F
1B
FB
F9
1D
D0
FA
15
ED
0D
29
CB
EC
FA
CF
09
D4
1B
CA
0B
1C
2A
09
2A
1C
F8
E8
12
22
20
D2
0A
ED
F6
C1
EC
EB
FE
ED
F8
F2
25
F7
F2
CF
10
38
E8
F4
F5
26
20
24
14
F2
1D
FD
FF
21
ED
11
1B
28
DA
DF
E3
2A
0B
E2
02
32
EE
EB
29
0F
09
CF
1A
12
29
FC
DD
16
17
10
00
1E
D8
ED
16
F1
09
00
11
27
01
E5
D4
D1
CD
2C
E4
EF
EE
1B
E7
E3
E1
1B
0F
D9
E8
D8
E5
DC
F0
12
E4
F6
0E
EB
08
F2
08
04
E9
F9
DD
EF
EB
DC
2B
F5
EA
BC
22
2F
1D
29
38
22
05
28
04
F9
14
F0
DD
09
E3
EB
F6
DB
20
F2
3F
09
D9
37
C7
0B
0B
12
E9
02
E4
13
2D
EB
01
1D
20
1E
11
04
C7
EE
1E
FE
1C
E2
01
26
26
07
11
20
F5
1F
1A
CD
0E
E1
FD
3B
EB
FA
F1
04
DB
05
E1
13
14
FB
16
D5
CA
00
2A
0D
F2
0F
CF
F3
16
15
09
0F
29
2A
1A
EC
E2
EB
39
12
FD
07
C9
DA
DA
E5
F5
32
0D
02
1E
D5
D6
1F
2B
DB
2E
F0
0C
F6
15
1A
11
D6
FB
F3
E9
E6
F6
18
F3
15
14
03
EC
E6
26
F3
0C
13
1C
F9
E9
0A
F9
2F
00
1E
1A
E3
19
D8
29
30
16
27
F2
E3
0E
FE
26
08
17
0A
15
FB
2E
10
05
D5
EF
E7
0F
EC
EC
34
E3
E9
FF
E3
14
E8
F0
E0
04
F4
E4
2F
F5
24
EC
29
05
DE
11
00
0D
14
F3
F0
12
2A
0A
ED
23
20
17
F4
34
1B
DD
E8
0E
0D
0A
DF
0A
0F
09
20
E4
2B
02
04
1F
28
12
0F
0D
22
BC
F0
D1
06
FF
2F
0A
06
2B
E6
07
2E
28
2A
F5
EE
DD
EC
F5
FC
14
0C
02
14
0C
01
07
1F
EE
0C
F0
F2
1D
15
D9
09
EA
18
ED
E5
F0
1F
DE
E3
CD
0A
F8
17
57
F1
1A
E3
E6
FD
2C
FF
1B
02
EF
2F
FC
17
04
0D
3F
1C
FD
FD
25
24
DF
DE
23
F4
FA
2A
D8
F4
D6
2C
CA
30
DF
04
F0
ED
01
F7
09
0E
F8
20
01
EB
0C
EF
D8
1A
0E
F2
D2
0B
00
D5
19
20
F0
24
0A
E9
23
D7
ED
FF
D3
0F
D6
25
E1
19
D8
18
FC
F6
F1
2E
1A
24
19
F1
18
F7
02
0D
1D
D7
E9
F6
F9
13
14
F6
D9
E4
D4
08
D8
FD
FB
1C
08
13
1B
D5
EC
0B
D4
1A
28
1E
2B
1B
14
03
0B
17
D1
ED
EA
29
C8
23
DA
CE
F7
DE
CF
E0
0F
0F
D9
E3
17
E2
EB
CF
0B
12
FC
00
06
1E
17
E2
D4
0F
26
D9
E5
07
D9
07
F8
02
17
28
ED
11
26
DE
DD
C5
D4
D3
E5
0E
FF
14
27
D4
D4
13
EC
E8
07
14
D8
F6
EA
FF
D4
23
D9
FD
C9
D0
1D
DF
E0
CF
DF
E5
F6
00
F1
DC
D1
F6
01
D3
0F
D1
D5
0F
1F
ED
FC
DB
FA
1B
04
1E
02
25
ED
DF
22
19
E4
E0
DF
F1
0B
03
D8
FA
F2
F6
10
DE
E9
04
0A
D4
E3
1E
DD
FB
04
CF
F3
1F
D2
F4
1A
F1
12
17
F1
D6
DD
D2
0B
F7
FF
D4
EF
F0
F1
FD
22
F2
C1
E5
DE
18
FC
16
F7
FC
FD
F7
F4
04
D8
D9
10
08
25
1B
27
FD
FD
07
DA
EA
F2
F8
EF
14
E6
08
CA
1C
17
13
2E
E8
2D
FB
14
1E
F9
15
F0
EF
1E
1E
2C
ED
23
00
00
05
CE
FA
DE
DF
E1
DA
D2
10
DD
04
21
07
20
F5
FC
1F
14
29
EB
E5
E9
DD
12
D6
09
D8
E5
23
1A
F9
DD
DE
EA
FB
1E
16
16
06
11
FF
DE
0A
10
1E
DF
0B
C6
E2
F0
D3
EF
D1
D0
15
F5
FC
D3
D5
07
DD
23
14
E1
CA
E2
20
D3
F0
D2
17
F1
D0
11
DF
DD
14
D6
05
F4
19
D6
F1
FD
23
09
CC
17
D5
E4
1D
F6
ED
FB
01
B9
13
26
EF
00
FE
18
E3
BC
CC
D5
FC
27
F0
04
D7
F9
CE
E3
C2
12
DD
0E
18
1B
E7
FB
1D
ED
E9
22
15
10
1A
0B
E7
F9
0C
24
13
27
26
FF
DE
2A
DE
F5
03
EE
18
CD
B9
D9
D0
2F
00
DA
29
D2
DD
0B
E1
F4
06
DE
FF
D1
16
08
EE
20
16
E3
DB
FE
F9
F7
D9
ED
1E
FC
1C
18
20
F2
2C
20
D4
15
00
C4
1E
F3
E7
DD
1B
0A
EB
28
08
F0
1A
E3
1B
04
F5
16
CA
D9
E2
E7
14
F2
10
DA
DC
11
E4
0F
23
FF
E4
27
19
0C
D5
F0
0A
F2
1C
24
FD
27
14
19
F2
D2
04
DD
17
D0
F1
DF
10
D2
EF
0E
D3
19
CE
17
07
1F
02
CF
EA
F8
1D
EA
17
22
FE
FF
1F
EB
09
E9
F5
20
E3
FD
DE
E7
16
DB
21
1E
FB
F1
02
E0
20
F8
10
02
02
DD
E5
E6
22
F8
2F
FF
E3
29
DB
F0
1D
18
E5
D1
20
02
FC
FE
09
14
2B
E8
2B
D2
21
0B
2C
FC
06
1D
D5
13
1D
CB
DF
08
1D
25
D9
08
F6
E0
DC
15
20
D8
10
1E
0B
CF
E1
FB
F3
08
01
DB
20
CE
CC
DC
16
E2
19
E0
EF
CE
0A
0D
13
19
CF
03
28
0E
0F
DC
1A
D2
E1
CF
ED
C9
EE
0E
FD
02
D3
03
0A
DA
2A
0A
D1
D2
16
EF
27
F2
D2
20
03
EF
03
01
EC
D7
0A
F9
F4
26
1B
EF
06
D4
03
EB
05
08
09
CE
14
D5
0E
CD
06
E0
FF
01
15
11
D5
CE
1A
E2
FB
09
FC
E3
15
01
08
1C
F2
F3
02
28
F9
F7
1F
D4
18
08
D2
F3
EE
E4
2A
0F
F3
0A
E8
04
19
E6
E2
D2
D0
D1
1E
0C
E1
1D
CF
F4
E1
1F
F1
F4
F0
EB
ED
FA
D9
20
F0
F5
1F
D7
E7
D3
F9
29
2F
28
01
DF
1D
08
00
09
09
1A
22
DF
17
03
15
DF
15
CC
DE
20
27
10
12
02
00
E7
EC
F4
E0
01
E3
CF
FF
F7
F1
D0
EE
DA
0C
0F
03
FF
CF
F5
16
F9
23
19
E1
F5
E1
09
CC
E4
E5
25
11
DD
CB
CB
0F
DE
E9
13
F2
E5
15
DC
2C
09
D4
06
18
DD
FE
0E
1E
F4
F6
2D
EA
0D
27
DC
1A
E5
E6
11
21
E6
F7
DD
1C
DE
F8
F8
EE
F7
18
F2
11
21
E5
FE
F3
14
01
CA
28
E0
EC
DC
D0
0E
1B
E4
1B
E9
1C
00
1A
F9
FC
D5
FF
CF
EA
2B
16
E5
DC
12
13
14
CD
0B
17
0E
07
FF
DA
EC
F0
30
D9
11
14
F1
D8
0C
27
F2
25
27
DD
01
F6
1D
DD
03
20
00
1E
24
E3
22
EE
DA
DE
05
1E
D3
D8
D3
18
02
20
18
25
CE
E3
15
EB
10
06
D2
14
C7
F2
0A
E9
D7
DB
EE
D5
DB
F0
21
EE
1A
FF
F8
E0
D4
D8
EB
EA
E7
06
D8
15
0D
F8
09
EF
DB
28
D1
29
06
F8
E8
D5
EF
E3
D0
E6
0D
13
13
FE
0F
F5
07
D8
EF
23
FB
1F
DD
1A
E2
27
D8
09
DB
EF
FF
FC
16
F4
0F
08
CF
E2
DA
12
26
FF
17
1A
DB
E1
2E
29
26
F7
15
E0
D1
1C
E7
28
06
E5
EE
D2
E6
DA
D9
F8
FB
EF
21
12
1A
11
D7
13
E3
EC
13
E9
E0
0E
D6
12
07
16
0F
CD
1A
D6
08
D5
F8
13
F7
26
D0
D9
1C
EB
0E
07
F4
1D
29
EB
E9
DB
27
0B
15
F3
06
F0
DF
D8
D1
D2
DF
E7
00
F4
ED
18
22
F1
0D
24
07
09
13
FD
D4
19
F8
12
E6
EA
22
18
CC
ED
EF
ED
EF
F3
F5
F5
02
E3
1C
22
1A
13
22
F2
CB
D7
01
E7
22
09
04
EB
F0
05
D6
EB
08
28
D3
F2
E3
14
1B
E7
F0
2A
FA
CE
FB
1E
0F
03
E1
2B
D6
23
F1
0D
27
F8
19
27
14
F5
12
F8
0B
EF
F4
19
D8
E4
0A
D4
F9
D3
1C
2A
EE
15
E6
E9
D1
23
DD
1D
2A
09
F7
12
22
E4
15
DB
D2
08
27
00
EB
0D
0A
08
2B
EE
FE
EF
2E
0E
1B
FD
2A
E8
F4
20
D1
1C
F8
25
2F
10
F5
F7
FA
04
D9
FD
0D
DA
E2
DD
22
2D
08
26
D3
21
21
D1
F4
E7
F0
E2
E9
FD
F1
05
BE
1F
EF
D9
DA
18
F3
21
F7
D4
CF
23
2C
1A
16
E4
E4
23
D7
D9
DB
0F
0D
F7
20
D8
18
EC
DB
F9
E9
F7
D7
12
25
EC
1E
0A
15
1D
E4
09
ED
2E
13
07
30
05
05
F6
02
09
15
1A
0B
1D
0C
FA
2B
FE
0E
C9
0B
F3
10
26
19
27
0C
14
E2
1D
15
12
D6
1E
00
01
0E
CF
1A
06
DD
25
0F
DD
07
E7
FA
2C
02
D2
13
D4
01
1F
18
04
03
F2
2C
04
E9
01
25
FF
09
D8
DA
00
F4
F2
1C
12
EF
19
D5
13
FF
2A
E1
0A
D1
F2
DE
DB
20
29
01
FB
D6
F7
F4
DE
26
EC
03
3C
0B
0E
02
EF
0F
EC
F8
25
09
DF
22
01
27
12
23
EE
CD
2C
33
13
07
F6
E8
2A
11
0C
F5
F1
F8
07
F5
D6
E0
14
D5
D6
02
28
FA
E1
00
18
2A
F8
0E
E6
F9
27
00
2B
19
2E
23
23
D5
DD
FE
F6
21
02
F4
D1
26
28
D2
EA
FE
0B
17
05
D8
06
13
ED
2B
F0
FD
28
1C
19
36
F8
D0
D7
D6
D0
06
07
14
1F
FA
D1
FA
FB
2F
F1
F5
11
01
E1
0F
F7
09
EB
16
26
DE
2A
0B
ED
D5
11
EB
ED
0A
E4
10
E5
F0
F0
F5
CE
2B
D8
F7
E6
F0
F9
ED
1D
1D
EE
E6
0E
EB
0A
DB
11
E9
27
0E
E2
1B
0C
01
D8
2E
23
DE
DF
05
04
F1
16
D8
16
EC
17
10
1A
20
F6
D2
1E
FD
0F
D1
E0
16
29
E1
0E
08
1D
14
E4
F9
FC
1E
2A
E7
0D
2A
08
F9
08
E9
D7
06
1B
D1
10
E1
08
FA
12
E1
1C
00
EA
E3
12
F8
DA
12
EF
09
1F
F7
F8
FF
F5
DB
F0
11
D5
E7
CD
17
33
03
08
2B
FA
E4
1F
EA
20
0A
05
2D
28
1C
E5
1C
0F
0D
16
CF
EC
25
DB
D6
EF
00
D6
18
D5
F0
08
F7
28
03
CF
EA
25
DB
25
04
DF
E6
08
EB
D2
0D
D7
EA
D3
D9
23
D5
EE
F2
2A
EB
E4
22
D3
25
31
E5
1A
11
18
1D
F5
12
E2
CA
10
06
2E
07
E7
C6
15
E3
D6
EB
2D
27
16
13
C8
08
FF
0C
01
E1
2D
F1
F9
20
EA
FB
0F
0F
E6
19
15
0F
25
22
D0
14
D7
23
E5
07
D9
04
14
17
23
32
F2
3B
F0
12
31
E7
26
EB
D6
2D
F4
F4
1A
20
06
EA
1F
D2
FD
DE
EB
2F
13
16
1B
F7
21
D2
FE
D2
DB
0D
25
F6
0C
0A
29
FA
F6
EA
F8
06
D4
D1
FE
D5
E5
FB
0C
EE
D5
0A
19
F9
05
0E
D7
0E
17
28
0F
ED
FC
0F
06
E4
DD
DF
15
11
D7
0A
FF
F3
20
2C
E6
D9
0F
FC
F9
E4
0E
10
02
F1
FC
DD
18
19
E0
CF
E2
0E
DA
13
EC
C6
F0
C6
C6
C7
E2
F8
DF
FE
46
D6
EF
CD
01
C8
D8
CC
CE
D1
D8
D4
1C
01
DF
17
23
01
FB
DA
FF
DD
C9
EE
1D
F4
2B
C1
DE
CF
C9
EC
24
0F
EF
CC
08
E5
21
13
D4
FA
1A
06
CD
BA
CE
FF
16
04
04
CF
11
03
EC
E2
D4
04
06
23
0E
0E
E2
26
F5
14
DF
F7
0E
00
FA
FB
F4
E4
F0
16
DB
FD
F3
F3
11
F1
FA
10
E0
CB
20
F4
19
18
E8
F1
D8
DE
03
18
36
CA
F4
FD
18
F2
DC
EE
23
09
F5
CE
0F
E7
FB
17
CA
30
C7
EE
0F
E2
E9
37
D4
18
D4
00
C9
E6
F7
03
10
DB
FD
0F
1E
05
2C
03
EC
EF
DB
1E
DB
0D
FC
14
D1
DC
FD
0D
D7
B5
1A
E6
15
F4
D3
E9
EF
14
08
15
23
29
CE
2D
DC
FD
F1
19
11
1D
2F
FE
1C
13
DB
F7
FF
11
C8
E8
E3
32
16
2E
26
07
24
28
ED
24
D5
DC
EB
EC
1B
0D
FB
F3
F9
E1
1C
F1
FA
F5
1F
E8
E3
FE
17
06
0E
0F
EF
13
F5
FC
15
09
F5
14
14
08
E2
0E
EB
E8
E1
0B
2C
DB
F6
1F
DF
E9
20
03
FC
05
00
0E
13
CA
09
BA
E1
1B
12
27
F5
DD
DA
03
3C
17
26
0E
1A
E6
E0
09
2C
DE
F4
0F
DF
C3
00
17
1A
25
31
DB
E1
DD
FC
1A
06
1D
30
0D
D2
1C
DC
09
09
FF
17
C4
05
26
10
F0
02
FE
0F
14
07
0E
D5
1A
1D
DB
1C
0B
0A
0F
FA
F6
1A
E7
0E
F4
02
14
0D
FD
13
F7
0E
0E
2C
E9
E5
E0
0E
CE
F7
F7
C4
DB
17
EA
EB
EA
04
0E
31
E4
11
FC
EC
21
EA
F0
C8
F7
DD
E9
E3
05
F6
03
34
2B
DC
DF
09
0A
E7
10
E5
1C
EB
09
D4
FE
E5
F5
DD
E7
E1
C6
11
1A
FB
BA
1F
00
EC
1D
13
1E
F4
E0
C9
33
FB
F1
1A
E3
34
E3
10
02
1D
1A
F4
E7
17
EB
13
01
EF
0A
08
20
14
0C
C6
14
F5
D6
0C
12
DB
23
E8
ED
FC
DE
01
C9
04
17
FB
E5
01
0E
EF
22
29
1B
ED
1A
ED
D7
00
28
30
0B
0E
19
E5
34
FA
F4
E5
EC
FC
21
DA
EE
33
EA
1D
14
DD
FE
1F
23
12
2B
ED
DB
05
2F
F2
11
2A
24
0D
DB
DF
0C
E8
CA
ED
10
EC
E1
EA
D2
11
D9
3B
F0
05
F3
FF
12
E6
0B
19
E9
F4
EB
F1
28
25
08
E8
26
20
37
12
DF
19
FE
0B
F3
31
2D
D2
18
F4
FF
FF
00
F1
16
F3
E5
EB
2A
05
1C
19
FA
23
05
1B
19
D7
1F
29
30
23
1C
E7
0C
18
E7
1F
DA
06
13
F2
29
FA
11
DB
EF
2A
E6
E6
15
FF
EE
E6
DC
F8
F9
26
27
E0
12
10
DE
04
E1
D4
F6
F2
1D
1C
16
08
F0
2D
EC
2C
2D
DD
E0
E9
E5
31
F7
DB
2F
F0
E9
07
0B
E2
0C
0E
1B
F6
35
FE
F0
F6
13
F0
38
FA
0E
E0
F1
15
EC
DF
F6
CD
0A
28
EF
DC
2B
0F
F6
EB
2D
FC
0E
23
08
E1
F8
E2
32
F8
1F
11
DE
FC
01
EA
1F
1A
05
28
1F
DE
11
EB
1C
0A
04
F3
F0
EB
E6
1B
E7
1A
FC
F1
11
D5
0D
EC
16
1F
17
E7
30
F2
04
DE
EC
2C
11
1E
E2
FB
F7
E2
E0
E1
2E
F9
23
2D
EF
E7
25
2C
16
0E
E6
04
DC
28
FC
17
02
D7
1B
03
D3
03
F6
15
EC
DF
29
0F
CE
D4
29
F9
06
DB
28
2C
F2
29
0B
12
09
2D
EE
F0
D5
C9
1B
04
17
EC
EF
1F
CB
19
01
24
DB
28
DA
02
2B
D1
DA
F0
03
1F
07
0F
17
D3
12
DE
1B
32
14
EE
E9
20
EF
1B
14
E3
27
E6
13
1B
30
E6
E2
E2
FC
0F
E3
1D
D2
28
FB
CD
DD
27
E0
DF
1A
04
19
E5
EA
45
14
E2
D7
10
36
F5
F4
32
29
E4
16
28
FB
D1
35
F8
08
DB
D4
20
12
0F
2B
14
F0
ED
1F
06
0E
2D
06
DA
00
C4
11
D3
1E
11
0A
E4
FF
E5
00
E3
2B
1E
05
D6
21
F6
1F
E4
27
07
1F
F1
EF
05
26
1C
D9
E9
CF
E5
09
F4
0B
02
FD
16
07
F2
27
FF
1E
F4
1A
F2
F4
DD
D1
1E
FA
EB
E3
D5
29
04
FC
F6
EA
00
1C
CF
2E
37
DF
E4
34
28
F6
CC
D3
E3
FC
CD
1A
26
10
EE
0A
39
ED
EF
26
F9
E9
EB
0A
13
28
D9
EB
06
22
E8
FA
DB
1F
F7
13
03
15
0C
09
EA
E7
DD
E0
FE
F2
FB
2B
E6
F6
22
0C
F3
0F
0D
12
1B
26
E9
D0
11
15
F1
CD
25
CC
0B
05
FD
2E
F3
F0
E2
06
05
10
23
FB
26
E8
DF
CC
D2
0F
26
29
09
27
F0
DF
E9
DA
ED
03
28
C9
E5
2A
20
0D
D4
30
08
F0
FD
EB
DF
CF
1D
19
E5
0C
FB
E7
10
03
0B
1C
05
13
ED
20
CA
D7
FB
FE
DE
0B
15
0E
1B
F0
1C
1A
2D
1D
28
0B
E7
0E
25
19
D8
09
E8
FA
02
DE
0B
DF
F4
0B
D9
EA
08
EC
1D
1A
1F
27
D2
EF
1C
0A
F7
F0
F6
02
D6
00
1D
F3
1B
22
23
03
07
F7
ED
EF
D8
09
05
DA
DB
1A
02
1F
07
F6
CF
20
2A
FE
E3
12
FA
0C
01
18
DC
24
FF
07
1D
0F
EC
21
17
1E
05
E8
FE
DA
E5
16
0B
CA
D4
D9
0A
0B
19
F7
F2
F0
1C
F2
DE
E7
F2
0E
0E
CB
05
06
DB
0D
F3
D2
1A
21
EE
E9
13
D7
11
0E
08
D2
03
15
E9
FA
DB
FA
F4
F4
21
F8
29
EE
2E
14
E4
D9
16
E3
06
E8
2A
07
EE
E6
26
F3
E4
D3
1C
D9
1C
D5
01
F9
E5
DB
1A
E7
F2
13
19
F3
DC
07
E4
EE
E5
24
F0
10
22
F5
E7
0D
11
FA
0C
D7
ED
21
FA
EA
D0
DF
1E
D0
1E
DB
E2
21
DD
EE
FD
23
D5
FF
2E
03
17
1E
1B
08
D7
2D
D2
FB
1E
0E
D5
EE
2D
28
E5
28
FE
ED
17
F0
E0
26
F4
F3
16
D4
FD
EF
2A
DD
22
F9
13
D7
23
DA
DA
1B
E6
E4
0C
D3
D8
07
E2
ED
20
1B
E6
18
FD
F2
20
1D
CE
D2
0B
E2
18
23
25
E6
17
F5
D8
1D
13
D0
E0
CE
05
0A
20
EC
D3
F6
CD
23
E5
07
0C
10
1F
15
EF
EE
11
EC
06
0B
16
08
F0
EF
25
FB
21
E2
2C
D6
1B
2B
06
F8
19
DA
09
F3
D8
18
2E
D3
2C
E0
D0
22
0F
EF
DB
F7
F3
28
D1
08
1E
2B
02
2A
FC
12
07
D8
12
1D
00
02
D8
D4
DA
EA
D6
12
D7
F5
0A
F6
15
2B
D1
EF
EA
2B
F8
00
FD
17
E6
1C
E6
01
1D
EC
D8
D6
05
FD
09
CA
FC
21
CC
DB
D3
16
EB
DD
FA
D2
24
11
07
0F
D5
D1
0A
FC
17
E8
E6
26
06
E0
EE
E9
E0
29
13
D4
F7
E6
E1
10
17
06
19
0D
0F
E8
05
12
FF
21
D3
D7
02
05
16
F7
24
E0
07
29
FD
1C
1A
25
16
D5
2C
00
E6
EE
D2
05
D8
16
0F
FB
FA
E1
EE
F9
17
0A
E4
1E
FF
D5
D2
F2
E2
F7
EF
F6
F3
CE
EB
0B
FC
0D
24
FC
0E
FA
22
F3
23
FD
FA
21
22
D2
EE
E1
0A
E8
DC
E6
1F
07
21
10
F6
E7
E3
E9
DD
F9
E0
F6
D2
2C
16
DC
D3
F4
FB
0A
FE
D7
21
F5
E6
18
21
EB
DC
E7
01
05
2A
F4
E1
27
DA
01
DC
F2
E4
21
0B
D2
16
1B
F3
DB
11
D9
28
22
FC
D8
E4
21
1B
D9
F9
2E
D9
2E
06
04
E5
E9
FA
1D
04
15
F1
D5
1B
D8
C9
05
CF
CB
EA
04
26
0F
0D
05
0C
EC
CB
CF
E4
23
FE
23
D0
0E
E0
EE
D7
FB
D1
08
00
1B
CD
29
E3
09
21
CE
FD
E3
CD
FC
D3
16
20
E4
DF
16
1D
EF
D5
DC
E8
25
EF
1B
13
0E
13
D3
00
2D
0B
34
FB
E5
05
FA
F2
DE
14
CE
36
EC
D0
22
09
1A
07
E3
D6
28
F3
17
0B
12
16
28
0A
E4
EE
0B
D9
F1
F6
01
CB
EE
0A
2A
20
32
16
26
02
02
F7
DD
DF
D5
DC
0A
ED
CE
E6
15
CE
FB
F4
1D
F4
0B
11
20
E7
D0
E9
C8
DD
01
DD
FF
F3
0C
F8
05
F8
F9
E4
D6
16
DE
D4
E3
02
F8
B9
EA
CA
FD
29
05
0D
F2
F8
EF
13
0D
14
26
FA
13
34
07
0E
04
05
FC
07
F6
EE
2C
03
1B
D9
25
E0
19
D6
27
D4
F1
2E
0E
F9
DD
02
C7
FA
D6
1F
08
2B
F4
07
22
E9
F7
F0
10
0A
29
21
ED
E0
FE
DD
0C
2B
00
DB
D9
F4
DF
2B
E8
C6
EA
1D
1A
1C
F6
FC
08
E1
28
03
ED
F8
D3
19
D1
12
21
DF
17
EC
06
1D
0A
24
15
26
2E
1C
E5
13
FF
EC
DA
0A
E5
F0
CA
E5
08
E4
0F
14
08
0D
16
F2
0C
FB
C8
07
08
10
F4
ED
E4
F1
28
CF
1D
DE
CB
FD
1A
15
FB
EE
C8
E9
D7
28
DF
29
E7
33
DF
30
E8
2E
EE
08
DE
21
0C
07
FE
F6
F9
FB
E0
17
25
E8
2D
FA
FF
13
04
13
24
0D
12
19
D9
0D
E8
F7
27
27
1A
E0
0A
F0
EA
FC
E2
17
14
11
16
00
0A
2E
E3
DF
16
13
DF
08
26
D2
D4
09
F1
D6
04
FB
1F
DD
D6
18
BD
22
23
F6
EF
FA
F7
DC
23
26
2A
EF
F8
DA
00
23
CC
33
E6
2E
1E
D3
43
F8
EF
00
08
19
1A
25
11
D2
EC
12
E7
27
EF
18
31
31
E6
1C
E7
DC
00
23
1D
FF
CF
E2
15
21
2F
17
0F
00
0D
3A
18
1C
E3
21
1C
D2
E4
FC
07
27
2D
21
F7
E4
CB
1E
FB
EC
35
09
E5
1A
27
DC
E0
02
0A
1F
18
E8
2F
0C
D0
E6
E6
F7
01
F6
53
CE
25
18
F0
F5
23
11
FA
26
CF
18
00
1E
08
EB
0F
16
13
22
F2
DC
1F
11
F4
03
19
DE
DB
DB
DF
2B
ED
D0
07
F4
D9
12
05
0A
05
17
F0
22
FB
D7
D9
15
39
02
FA
E4
10
04
F4
CD
2B
22
F3
0E
02
D8
0A
D2
BA
F6
E6
17
13
00
0A
12
C2
00
EC
DA
04
CA
DC
F9
F5
09
02
D8
22
FE
27
08
D2
0D
EF
F0
EA
02
14
DD
1A
D8
18
2C
1F
FD
09
FF
0A
C7
E7
D7
D8
DC
F0
D9
31
DE
EC
19
0D
DF
09
27
FF
ED
F0
06
DE
07
2B
E8
FD
E7
FD
E9
E5
06
24
15
CE
0E
02
1C
F2
16
2B
26
0B
01
29
E4
21
EE
D3
13
19
D2
14
E2
CD
0B
01
D1
00
1B
09
EF
C9
0C
20
D9
CB
EE
D5
F9
C9
1A
D2
F8
FE
DE
07
F2
FF
ED
F0
27
EC
1B
F3
10
19
18
DE
E2
11
C9
F2
2C
08
F2
00
11
C9
06
D0
CE
F3
F6
19
DA
F9
F1
02
06
11
EB
02
17
F9
D3
0F
FB
12
16
E9
D6
0D
FF
DA
CE
D9
F7
1C
0F
23
07
F8
10
28
02
DF
27
E6
FF
17
DF
19
0F
24
03
F6
F6
09
E0
EF
D0
01
1D
2B
22
0C
D9
15
CE
D0
DC
F4
E5
07
EF
F7
D0
20
E3
DE
EF
FE
FF
18
FB
DB
E8
0C
08
1D
F8
C7
E3
E7
09
22
0E
DA
F9
3B
F1
F9
0E
41
14
16
22
19
F1
02
34
DA
D8
42
DF
1C
FA
17
2B
EB
07
D8
EA
C9
EC
D1
11
00
E8
FF
F7
22
C8
0E
EA
CA
D4
DD
CF
DB
E8
D3
11
E0
22
C6
E3
D9
E1
DF
0E
DD
CC
F2
01
CB
DA
CE
FB
2A
F7
F8
CE
FB
ED
F5
EB
0D
25
11
02
0A
C2
0E
F4
F6
D0
05
E4
1A
1C
F7
03
CB
15
CD
F4
1D
CB
EA
F9
26
F5
D2
13
19
16
CA
0F
E6
D9
14
D7
D8
F4
CB
F0
E7
C8
FD
CD
0B
F1
E3
02
1B
F4
E3
FB
02
13
C5
DC
FF
FA
19
1B
DA
15
E4
F3
1A
F1
EE
0D
0A
3A
E9
09
15
DE
22
0C
FB
0E
09
1C
EA
16
2A
F4
E4
F2
11
FE
0D
F0
0D
07
E3
ED
05
E1
E0
09
19
1B
DE
10
F2
09
20
C7
09
C8
E9
28
09
FF
0C
DF
08
0F
06
CB
F3
DC
24
03
21
1C
EC
0B
0F
EE
16
DB
24
0F
0B
FD
CD
D2
D0
D3
26
08
D2
DD
26
1B
FD
EB
EA
FB
CE
33
D6
E3
20
00
07
FC
18
F6
F9
16
12
D1
F0
C6
17
39
F9
0F
E1
0C
25
FD
03
E0
06
10
E4
33
E1
CC
2D
F6
E2
D8
19
CF
E0
EA
D0
D1
CA
F5
11
E0
14
08
D1
E6
E6
F0
E2
D4
F5
F8
E7
D3
18
0A
F9
16
F8
DB
F0
10
1C
04
0E
FB
FC
18
EC
FA
2F
22
DA
08
EB
1F
10
30
D2
FF
20
C9
C9
D5
D9
CB
26
1B
C4
11
F6
0C
21
2E
D7
CB
07
06
EE
FB
13
EB
14
F6
D7
CA
D6
F0
20
1D
17
12
F3
1E
19
ED
D0
DC
18
01
DD
02
FF
E8
12
C9
08
FD
0E
D8
11
10
03
04
D7
F2
F6
01
D7
E9
CF
0D
17
29
F4
00
39
F9
08
05
E3
06
D7
0C
DF
D8
21
0F
CF
01
1C
D6
DB
1F
0F
04
2A
FD
35
16
1B
CD
07
01
DD
01
E6
CC
F8
1A
FA
EB
EA
EB
EE
01
E6
EB
FC
FC
FB
F0
F0
E4
14
E7
17
CC
F5
DE
F9
EF
20
1E
14
F8
C7
DC
05
1A
E5
E9
0C
D5
18
F3
04
F7
0D
D0
FD
E8
02
1A
F6
0A
1E
FF
E9
00
1C
CC
E3
DE
DF
20
E4
2D
0C
F6
ED
CA
EC
1E
CA
23
13
FB
D0
E5
18
10
D2
E9
07
0E
23
E4
1A
24
03
DD
CD
01
0C
C5
0E
E9
D4
FC
CB
FA
E2
07
E3
16
39
DC
2B
09
DC
04
E5
E9
F4
3B
19
37
0E
CD
29
F0
E1
29
19
E1
1C
10
06
0E
2A
3D
26
1E
D5
D7
1F
06
01
D7
E2
1B
2A
FA
F6
DD
1F
DF
F1
D6
16
E9
1B
E7
E1
CC
08
D5
FC
1B
1A
1D
F0
DD
F2
FC
C8
04
1F
C9
12
CE
CA
04
ED
EB
1C
09
F7
1C
EC
0B
E1
ED
DF
FB
FA
F9
EE
22
FC
F2
1A
08
19
F0
01
D9
FF
13
DB
E5
25
19
E0
CF
DF
02
CE
08
1E
DF
19
27
F5
1E
29
2B
D7
ED
F1
39
22
F1
DD
F0
30
15
18
E2
14
20
FE
02
1E
0E
20
15
DA
17
01
22
FF
08
F6
0C
18
1E
15
07
06
11
18
E9
14
FD
CD
F0
1D
E6
04
04
04
25
DA
F8
07
14
D9
EA
0F
03
28
ED
F0
07
24
01
2F
F4
06
BE
0D
FD
EF
D8
E5
1C
CC
17
17
FA
1D
D1
12
03
01
EA
29
FE
CE
0E
EF
D9
15
E4
ED
DD
DE
FB
2E
E6
FE
0C
DF
25
11
2F
F0
23
D0
12
FF
14
E0
0D
0C
E2
2B
E5
D0
D4
EC
F8
1C
D9
0B
FC
F7
19
D0
F3
05
E7
E9
D7
23
2A
F0
04
03
3A
00
FF
E9
03
EF
EA
EE
21
E6
00
27
F5
12
DD
19
FC
07
15
EB
D8
23
DA
0F
DE
0F
07
DF
DE
DA
F1
21
D7
03
E5
D4
E6
15
10
FB
2E
1C
E3
DF
21
CA
0D
D7
06
06
D8
07
1A
1F
2F
ED
EE
D9
F8
15
E0
FC
28
15
02
28
1C
FB
F4
DF
D7
E7
EB
26
F9
15
D8
DE
F7
DE
00
DC
1A
03
C9
DC
DB
ED
09
1F
F3
BD
14
F0
01
0B
F5
10
E8
FA
07
DB
0C
FE
1C
E5
15
08
0E
1F
FA
0A
ED
D2
10
1A
1B
EE
E6
11
FF
15
16
D1
E6
C2
11
CF
06
12
0E
08
16
20
D9
15
07
0D
FF
12
FA
09
13
26
E2
06
E7
28
E5
F3
EC
D0
E9
F1
E4
E8
2D
15
F6
19
04
FD
2E
DA
F7
32
DA
29
EF
EC
2C
03
F9
FD
ED
E7
1D
DD
E6
13
D4
D2
0F
45
28
03
1B
EE
CF
E4
13
CB
D0
EB
12
1E
ED
C7
0B
18
D6
12
CE
F7
DC
EA
F0
F7
F2
26
E7
E1
D1
0E
D3
F8
01
E7
E4
21
E0
EC
17
E2
04
18
F9
C6
D1
DB
F5
DE
ED
06
EA
FA
0C
12
21
D2
EA
04
1E
31
EF
E3
E8
FB
DD
F6
FC
DE
24
28
2A
1D
12
EE
32
07
29
29
1B
26
FC
26
EC
01
20
1F
13
E3
17
37
04
32
DC
12
D8
01
CB
03
DB
D4
D4
0E
1A
DA
0C
D8
21
EC
06
C8
08
17
EF
E4
20
D8
DF
15
ED
0F
23
F9
2B
1C
0E
E4
1A
E3
05
D3
DF
12
E6
14
DA
2F
02
D8
2D
06
12
1B
F8
0A
F3
F8
DC
2C
15
19
11
20
F2
13
E8
F5
03
EB
FC
07
1B
1C
1A
EF
0C
1A
E8
08
1E
EB
FA
2C
D5
EC
21
FF
00
09
F5
FE
D6
02
ED
1F
D8
FE
F2
06
FC
13
25
DA
22
1B
DF
DA
0A
21
25
F9
2C
1F
E8
14
D1
0B
2C
E0
30
E8
07
16
E5
26
1C
2F
D1
E6
F7
0F
0A
FE
19
22
FE
E7
E1
30
F8
3C
F1
E1
35
F3
1A
DA
1F
08
03
F2
0D
F3
EF
F0
E6
E1
F4
FC
DA
F6
25
EA
03
F6
09
08
23
C7
DF
09
1C
F8
04
F3
21
EF
18
EF
13
DA
12
22
F6
0C
00
E4
04
E8
EB
D8
E9
08
11
01
F4
18
17
DB
0E
22
FC
E2
E8
D1
06
09
15
F1
ED
04
D3
15
D8
24
CE
EA
1A
D8
EC
F3
EE
0E
0E
14
FF
E0
DA
D8
E8
25
38
E6
20
15
19
DB
0B
C4
F2
45
C3
D4
10
D3
E1
04
E3
0C
F6
DB
11
28
D7
ED
1D
1D
E1
FA
F8
EA
F4
1C
14
C9
E4
07
12
D3
C7
EA
3A
01
D2
D3
31
F5
08
EF
2F
FA
EC
09
15
12
E1
CB
FE
12
29
D3
DC
28
E9
02
ED
13
F3
C1
F0
16
12
D4
D3
F5
EE
EA
16
03
FF
DD
BF
1A
09
03
F7
38
E1
36
26
21
E0
E4
F7
EA
DB
DF
D1
13
1B
EF
0A
04
DE
28
41
05
D0
EA
ED
DE
C3
28
DE
CD
28
18
09
DE
D6
2E
3C
29
CD
0E
FE
F6
F6
1B
3E
E1
E9
34
18
FF
0F
F6
2D
18
07
C7
F9
CA
E1
08
41
33
23
09
1E
28
16
09
F1
E5
1C
FA
10
1D
2A
E2
EF
E8
EB
19
03
16
FC
E1
1A
02
F3
28
1C
DE
18
07
EC
F4
28
09
2D
2A
FD
16
F9
40
3C
37
14
24
F2
35
FE
04
F9
26
FE
D3
D5
16
FD
40
17
1A
F0
11
15
2B
12
F2
DB
DC
0D
BD
EE
E2
0A
E6
EE
F6
06
DE
FA
1F
FC
EC
D4
18
E7
04
06
F1
E0
F0
EA
06
24
22
0E
FF
E9
DB
22
EA
E7
D7
0E
FD
3B
EB
03
EB
09
2B
DA
1D
28
00
1D
EC
23
E4
1C
F7
26
27
E3
F8
44
20
27
3F
17
EB
15
ED
13
40
06
28
FF
07
FB
0C
1C
F9
02
0B
27
E4
EB
24
33
FA
17
2C
20
32
F4
E7
2D
2D
23
42
FE
19
E1
DE
FE
27
1A
CC
25
D6
17
1A
DD
E2
F0
D9
15
1E
F0
F8
1B
27
15
02
CD
DA
F0
09
EC
14
FB
EE
2B
04
19
FC
23
19
1D
BA
FE
DE
04
F2
2A
0D
E8
28
1E
CF
E3
F1
DD
03
E0
E2
E5
11
18
F4
12
2B
2F
28
0D
04
1C
17
F4
E3
04
D6
26
24
23
DB
0B
F4
13
F0
EB
1D
D5
02
25
F1
EF
1D
03
CF
EF
17
15
12
E3
08
EC
EF
13
25
05
D3
03
EF
CE
DA
28
12
F1
E5
F7
F2
CC
14
04
24
18
D6
08
EC
0D
E9
11
0C
F3
D2
03
01
19
FD
04
FC
F3
12
26
0A
24
DD
17
03
23
FF
0C
E4
F7
D3
E8
F1
E4
08
16
16
DA
E8
E8
0F
DE
E1
24
17
D7
EE
ED
21
F8
DE
21
29
FE
E3
D6
F2
1E
E4
E0
FA
F6
F6
19
26
18
E8
0C
FB
1D
F1
02
E8
1C
13
18
F7
D0
0A
FF
E6
F7
E5
DD
14
21
1C
11
D4
E0
20
FA
CA
E5
03
09
14
DC
0E
F9
E3
01
FF
12
15
2A
FB
27
E2
E8
28
14
05
26
16
21
DC
0F
10
18
27
F8
CE
11
D3
FF
07
0E
10
FD
0F
E2
DC
29
00
E8
0E
F6
10
F0
EC
E7
10
DF
D2
1F
06
09
0B
E3
2B
DD
0E
08
F6
FF
D0
24
2A
24
09
06
20
18
08
F6
C8
CF
0A
05
28
29
20
D6
04
E8
F4
1C
E8
FF
07
CC
DE
14
18
22
08
08
09
0C
FD
00
E4
D3
DF
DB
0F
DD
F9
DA
D5
15
FB
FC
2B
0F
E7
08
22
0D
F9
EF
17
F9
D4
E8
23
DC
12
F8
D9
DD
26
09
02
CD
D6
0D
E3
D1
28
1B
F3
E9
26
00
DE
21
25
00
28
1A
F4
0C
DD
1B
F6
FF
E8
10
1B
D7
FB
F2
F1
25
16
19
E7
F2
F7
D1
E5
27
0A
E6
E8
E0
E0
DA
EB
E4
23
E4
24
0E
ED
2A
03
D6
D7
F4
DE
21
1A
E6
17
0B
1E
DB
D3
DC
D9
21
20
04
CF
12
CD
15
14
FC
25
03
23
DD
F2
D3
18
FC
E4
20
DA
D9
D6
1A
15
F2
22
CF
FB
20
D7
FB
E4
E7
E9
F6
30
14
1F
14
EE
10
F8
23
D8
E1
EB
FB
EB
FF
D4
14
DA
DA
0A
29
E6
D9
26
E0
08
F5
14
FF
CE
F0
22
18
EF
1E
FB
F1
0F
28
EB
16
F9
D4
D3
E4
08
EA
FB
FB
CF
E2
0E
07
D7
E4
07
FA
12
EA
0A
1C
E7
DE
07
DB
18
04
1A
23
1D
EE
16
C9
0F
D1
CE
1D
E3
0F
19
EC
D0
D2
0D
08
D8
05
E9
21
2C
1A
28
D1
10
0B
F3
1C
D3
1B
04
EB
1D
E6
D3
D5
E0
0B
F2
F7
ED
F6
D6
DF
DB
E1
DE
EC
FE
EC
04
DF
15
0F
04
E1
19
18
28
04
FC
26
FE
E0
0F
17
14
29
F3
DB
D0
24
00
15
FA
12
CF
FA
EC
EE
1E
D3
F9
E3
E0
05
DC
E2
EA
F2
26
EF
0D
02
14
12
21
DD
29
F9
23
10
E9
E8
E4
19
0B
FB
20
DF
DB
D8
28
F3
E1
1E
EA
D1
E9
CF
E7
E4
CF
D8
E0
2D
E4
F0
17
D9
03
0C
00
F0
06
14
03
D9
01
E9
0E
2B
EF
D7
05
FC
2F
0D
F6
16
22
F2
0B
FE
CA
01
18
04
E2
DF
0B
11
F0
F1
E7
EC
FC
E8
E0
DF
03
EC
F7
11
FC
0C
F5
06
06
F3
FB
D1
FC
21
11
E2
E6
F6
F0
F3
26
D8
E8
E6
0E
D3
08
C0
E0
DF
F8
07
02
FA
E6
CD
F6
FE
E3
23
2D
ED
FD
11
0E
DF
C8
D7
13
DE
21
E8
DD
F5
F7
EE
23
16
EE
1F
E3
CD
13
D2
E4
F6
E1
D4
16
E8
D8
F3
FC
D9
FF
12
DC
01
23
F8
E1
20
12
30
28
1D
E5
24
25
09
2B
0D
D4
E7
F6
09
13
20
06
0B
EA
17
AD
FB
DD
ED
DB
FB
F0
EE
E2
06
07
D6
D4
06
20
1A
F3
43
E6
1E
DA
FA
F3
04
20
E4
47
1F
FD
0F
23
F4
44
24
0C
F6
C8
0A
F6
10
2B
09
25
1B
F5
F1
07
1D
1C
14
25
1C
21
06
E9
2E
11
34
21
F1
25
0A
0B
EC
E5
D1
2F
DF
E9
F4
25
CD
FD
06
09
14
01
12
05
1A
E4
0F
ED
11
15
EE
FE
F8
1B
2D
F2
F2
1A
28
EC
D9
F7
04
02
C2
0F
DF
07
E6
EA
28
0C
FE
21
33
29
11
41
38
E8
28
D8
24
E0
ED
02
E0
0F
20
30
F0
31
17
E9
FF
0C
31
29
1F
F6
FD
14
EB
EA
E8
02
D9
03
16
1B
DA
1F
06
14
16
14
EC
1B
1C
0D
1F
F3
E8
05
EF
E4
F9
E2
17
F1
07
2B
1C
28
23
EB
16
FC
F6
28
EA
C9
D9
2A
C2
E8
F7
DB
EE
FC
19
10
02
DF
F9
1E
EA
C8
2E
F9
11
1E
0B
19
25
2D
19
F8
FF
16
E5
1A
19
E4
E0
E5
3B
FE
06
37
10
0A
0A
F1
07
27
18
1F
D5
E6
E7
D8
FC
25
26
D9
24
E1
03
E5
FA
0D
EC
29
F8
B8
CE
DD
0A
11
0D
00
24
DB
01
E7
2D
FB
10
E3
02
1C
15
27
1A
2A
20
F1
DD
ED
EF
1A
00
EA
FD
1D
14
E7
FB
2A
17
E3
21
09
19
09
35
03
EE
D1
2D
03
E0
14
26
E1
1D
23
12
2B
D2
EA
EF
1E
F4
08
F1
1C
E2
28
FD
22
28
06
F4
27
02
30
1F
20
27
03
FA
11
E1
2B
E6
E9
2A
14
EC
03
21
1C
F6
EE
F7
DB
2C
E2
03
25
F4
26
17
0F
23
18
DF
D7
1F
E6
F6
F3
0E
E3
0C
FC
16
17
F6
E4
20
D9
03
E2
0E
F3
2F
F2
F7
14
F2
D6
17
1F
0F
F0
02
1A
FD
0A
26
11
1E
D7
ED
1F
F9
03
2D
1A
24
FD
19
3B
D5
04
1A
0A
06
17
43
0C
DF
12
F1
F3
07
1F
17
16
FF
E4
02
EF
DC
0B
17
EE
18
1C
1F
23
2D
19
FD
E6
26
34
F0
2A
32
24
1E
25
E1
31
2F
E5
14
EB
06
D3
E8
D6
FD
D2
E5
E8
03
F3
FE
00
CF
F2
0F
D7
D8
E4
E6
E0
DF
EA
13
36
F6
1F
E3
E2
EB
00
18
34
0D
1B
14
38
1F
EE
0F
E4
DE
04
1B
C1
FA
0D
2C
13
2D
ED
BE
0F
F0
E6
E6
32
07
44
D6
E1
F2
1C
29
E6
C3
14
1F
F2
EB
00
E7
26
9C
3A
D2
1B
32
29
1E
ED
ED
33
0F
EC
BF
2C
F2
1D
BD
EA
D7
01
3F
23
1C
06
05
D7
17
F6
25
DC
FF
F8
EA
1A
23
E7
DE
0D
E6
28
2E
DA
E3
19
05
F5
F0
1A
18
E3
32
D8
EF
FC
0C
0A
FD
F5
03
1E
04
E2
EA
04
16
02
3C
C1
27
DC
05
D0
0C
DD
0B
FC
09
3C
26
05
0B
08
F3
FD
09
E5
EB
EB
0C
C5
FD
19
F9
FA
2D
E1
E1
E8
1F
1C
00
02
0B
16
0C
01
08
20
31
14
2C
1B
FC
E2
2D
12
48
1D
F7
E3
F3
D0
0F
DB
E5
05
E9
F8
19
2F
F3
04
F1
EE
50
DE
02
DF
1C
EE
26
E5
0A
FE
30
11
F1
3B
F5
FE
1F
0B
DF
DE
FB
39
19
F7
F8
18
07
F3
F9
F1
2B
0C
16
C6
30
A2
B4
4B
07
27
07
DB
E0
13
08
E6
45
1B
19
10
37
12
FA
CE
19
E8
09
ED
22
01
0E
3A
18
D6
E1
D7
EE
E5
ED
0A
10
EF
11
EA
F9
F2
1C
EB
18
21
EA
1D
EC
06
3B
CC
23
D2
01
D1
E0
FF
D3
26
06
FD
0D
06
03
EC
F2
E9
1D
FE
E8
F6
DC
F2
CB
2F
E7
0E
2C
2D
04
CF
E8
15
F2
16
DA
53
CD
E8
06
53
0C
F1
1E
EA
43
07
ED
EC
C7
FD
E2
08
E0
16
1D
F2
28
06
07
FD
DF
EF
1F
26
11
07
EF
AD
FF
1D
DB
2E
2E
24
1B
13
E9
F2
E0
FD
D5
EF
EC
FA
E4
26
0E
19
38
02
F2
00
F5
D2
1A
13
2B
07
05
09
EC
FE
04
14
0F
1D
48
E9
DB
F4
E4
39
15
7F
13
00
F5
17
33
32
17
EF
F3
27
09
DB
CB
F2
F1
17
E0
EB
0E
FD
23
2B
68
0E
0B
EE
1C
F7
05
E9
D5
F2
11
F4
C8
FC
EE
2D
F3
05
15
DC
21
0D
29
B7
F6
0D
35
2F
17
E1
CE
0F
FD
DA
E9
C6
DD
EF
23
CF
F3
19
C8
02
FC
D1
E8
C8
C1
00
25
07
2D
1A
16
3A
62
03
15
0F
33
EC
E1
B6
D6
1B
1A
35
11
D4
EA
3D
5D
0B
F5
0A
14
0B
F6
FF
1E
1A
F6
28
10
17
D4
F4
E5
0E
F7
EC
03
DE
1C
20
E8
1C
2A
0B
F1
07
10
DF
16
E2
EC
CE
06
D4
12
D1
13
F3
DF
FC
DB
04
F2
DF
FC
CE
05
CA
35
1B
B6
CD
ED
FF
DB
09
F5
04
F7
DB
F1
C2
D5
E2
0B
E1
CD
D8
F1
12
C0
E6
06
F4
05
DE
E6
DF
D1
ED
22
D9
F0
CA
DC
D6
1D
1D
DC
E9
E0
00
1C
EA
D6
F8
0A
34
2F
F1
EB
24
E5
16
01
F4
FE
EF
FD
E0
DE
DA
FE
06
D6
22
28
13
F9
E3
E9
D5
E5
0D
02
07
ED
09
C9
F4
18
F8
EF
1C
D9
DD
10
24
DD
CA
DF
EC
E3
FB
BA
29
D2
22
0C
0A
23
D9
0A
19
C9
1F
10
CD
EE
ED
12
01
0E
E3
D4
E1
FA
F3
1A
FD
E3
EA
14
39
FC
D5
1D
F1
02
FD
09
16
0C
DD
1A
EA
F9
FE
EF
21
F9
13
0D
23
1F
E3
0F
FC
FC
2D
18
F5
FA
1C
1A
FD
F9
22
E2
18
EA
18
2D
FD
F5
12
09
F6
09
DC
FF
02
DB
FD
D1
1E
28
EB
DC
35
0F
C9
1F
DA
E0
1A
DB
00
24
15
E5
20
F2
26
1F
0E
07
FD
CF
25
0A
F0
DD
E6
12
E0
DF
2B
EE
CD
CF
D1
0A
2A
03
E0
11
20
1F
DE
FE
15
04
0E
36
F0
17
2D
45
D6
D8
05
F4
18
4A
F3
FA
0D
3E
F6
11
F2
F2
13
E7
1F
00
05
CB
DA
F5
FB
00
E4
10
F3
F2
08
0E
E9
22
22
ED
FC
1E
F2
19
05
08
FF
08
1A
E6
E1
F4
1F
04
0E
D2
0D
1D
E1
FA
2A
F5
15
07
01
16
F2
08
FF
07
23
D8
28
FD
D4
05
0F
DB
13
14
D1
DE
EF
E3
0A
CF
DE
0E
00
1D
1C
E5
F2
E4
C8
FF
03
FF
32
23
E9
DE
0E
07
42
0D
30
47
D8
D6
CB
EB
FD
1E
17
F5
13
DD
29
33
DB
21
12
0F
07
DE
19
2B
E4
1A
E8
FE
00
F9
07
34
21
F7
23
19
EB
FF
23
E1
FE
F8
07
08
20
24
1C
1A
E0
F9
31
38
EE
F5
C5
F5
D6
F0
FE
34
FD
17
E6
1A
04
F8
E6
21
2B
27
E9
D8
1C
D7
39
27
21
25
15
FA
0E
E8
F1
C2
04
D1
22
F1
F7
E7
04
0A
0D
3A
26
00
0C
02
14
08
08
D5
0B
F4
0B
27
DB
EE
F9
DE
F9
FF
E1
06
CC
F6
FC
09
03
3D
06
F1
FB
55
13
15
1F
DA
ED
DB
F6
DD
1F
2E
1A
E6
14
10
0C
0E
D3
01
0B
23
08
1D
1A
1E
E8
F3
D8
2C
1C
E5
16
0D
12
2A
F8
FE
17
23
09
CD
1A
F5
17
05
E7
04
FB
0D
F0
EC
DB
DC
DA
26
DE
F1
CB
D7
FB
FE
DF
19
DF
18
FE
CE
FD
1C
19
14
14
0D
1E
EE
23
E1
1D
E9
11
E9
FC
28
11
FB
F7
F7
23
FA
03
25
24
13
09
DB
1C
F7
33
FA
19
E0
D8
D4
FD
1A
27
D8
0E
E9
02
FF
1D
DB
01
F9
E2
0D
E1
E8
04
19
D8
29
0B
F1
F2
19
EE
C8
28
FA
07
CC
FD
0D
CC
19
E8
23
0F
E1
0D
D7
C3
08
F3
C8
0E
29
F2
F8
D2
F7
D7
DB
18
1C
02
1D
F3
0D
22
1A
17
08
E5
1F
21
1A
DC
FC
01
F6
E3
1A
1F
10
1B
EE
E5
D2
E5
D1
D8
FE
DD
1F
0C
E3
D5
19
16
E5
1B
20
1A
F0
1F
CE
00
F2
0A
CC
1F
F4
19
DB
13
0C
E1
14
F6
DF
F2
ED
2F
18
FA
CC
03
14
2A
17
FB
E6
E7
E1
DB
09
20
E6
0D
F7
EE
1E
05
2A
16
F4
E2
D3
ED
14
05
02
F2
19
FE
DB
12
0D
11
F5
0C
07
1E
03
18
EE
1C
D1
FD
FA
E1
12
E5
E1
E7
21
E4
DD
06
F3
E2
24
DD
F5
E6
ED
E0
13
EE
16
E6
DE
07
E5
F7
05
1C
35
0A
F8
21
02
08
04
F4
EF
EE
FC
1C
DB
01
F4
17
EA
DC
ED
33
01
1D
17
DA
23
1B
22
F6
17
18
FE
28
0C
F1
04
DE
F4
1E
EC
13
2D
03
F8
FC
DC
EB
EE
E7
08
13
D4
EC
18
1A
D4
1A
09
E0
10
07
E3
F1
D5
FC
04
28
D9
3E
1D
23
09
D5
0F
26
E9
23
0D
02
CB
1C
1E
F7
E4
EA
EF
18
31
21
08
1A
F0
F2
E7
3D
D8
F7
04
F6
25
F7
28
F0
24
F7
1B
03
FE
0F
21
E1
0A
1B
27
1E
1D
25
13
EA
11
F7
FA
25
D8
E9
23
D2
17
0E
DB
19
EE
02
2B
E9
29
1E
0B
12
F0
2C
02
23
D4
18
0A
05
F5
EE
E6
22
08
FD
EF
01
0F
FB
24
E0
FD
EE
D2
1C
27
D4
EA
DA
D4
FE
FD
19
1C
02
EC
10
08
03
04
D7
E4
03
22
01
03
10
28
E9
D6
0D
21
12
15
23
D1
2C
12
CF
12
10
EA
13
20
26
CD
1A
06
E8
E6
F3
F4
03
19
ED
EF
15
17
E8
2B
20
11
29
26
F3
FA
E2
34
D6
0C
11
E8
1D
E7
FC
DA
03
DD
D5
D2
F8
F5
09
14
16
E2
E8
E7
21
F6
FF
E7
30
E3
0E
E5
1B
43
0E
0D
E6
17
EA
F8
06
F4
FD
17
FD
DB
26
01
31
00
01
14
E3
10
E9
F8
CF
F1
D3
10
E2
E7
00
E3
FA
0D
23
CD
DC
E9
C9
00
24
2E
F3
26
19
07
07
E5
E5
26
DB
DF
E6
0C
E8
DA
16
F0
09
20
29
20
D4
EC
E2
12
E6
FE
12
F4
F3
28
DF
F4
EB
0F
EC
1A
29
FA
F9
D5
24
E7
DB
21
D7
BD
10
ED
F9
21
EC
26
24
28
DA
F1
E8
35
24
D0
14
ED
F4
1D
EF
DB
DB
2C
E4
21
25
18
E6
1E
06
24
28
21
E0
21
28
10
C5
E7
D6
23
1B
F6
27
17
24
F3
F5
EB
17
12
0E
09
2C
F8
01
04
E5
1F
24
D7
F3
2E
2B
F8
E8
E1
DB
ED
FF
E7
E4
04
D9
02
08
06
F8
08
F5
21
EF
1A
05
D7
2D
EA
EB
06
04
00
EA
E8
D4
1B
19
D7
FE
FC
FD
D4
22
04
02
F2
CD
D0
DC
D4
D7
EB
E9
02
EF
18
E3
18
2F
0B
D9
F3
D6
15
D2
F1
2A
1E
21
EE
E4
22
1A
10
D7
0F
EA
E5
3B
22
03
D5
14
08
2C
23
12
2A
3B
0C
06
EF
06
10
1A
ED
0E
FA
03
D9
0D
1B
30
24
10
2C
13
1F
EA
EA
09
28
FC
03
1F
29
12
DB
F3
2D
EF
0F
26
53
E4
04
EA
F5
29
E9
E5
E9
08
17
14
15
E6
F1
13
19
D7
21
12
F9
E0
24
E6
E2
E8
DF
F4
1D
18
EE
FF
F8
D4
1A
63
2B
1F
EE
FF
DE
08
E4
10
EC
1C
DC
20
32
1E
30
55
2D
F8
F5
E1
03
1E
13
05
18
19
E3
F2
F3
12
F3
36
E1
E8
03
FA
DA
2C
E4
12
F6
00
F4
2C
03
1B
E3
0E
11
0C
08
1F
18
E4
FC
E0
D9
EF
F8
22
DE
27
DF
DF
15
1E
E4
25
D6
0A
0E
33
D7
1E
E4
13
DF
0A
E4
10
02
E2
0F
F3
28
21
E8
09
08
1A
11
E0
12
07
F0
02
F4
2C
ED
D7
DC
0D
22
1B
0A
34
11
30
D8
F7
E1
1C
EC
F9
F1
FA
DA
30
26
0C
F6
08
F3
1F
11
2D
DC
34
CE
E6
F9
FA
1C
40
35
11
DB
DD
18
2D
0B
FF
DC
DA
C1
01
F9
25
E8
02
0B
16
12
F2
EE
1C
F3
F0
FE
D4
04
0E
FA
24
FF
F3
F3
DE
23
1D
0E
F1
00
F5
ED
EF
F6
DA
FF
F9
EE
1D
EC
13
22
F5
20
D6
E0
2E
EB
F7
D0
35
09
0F
2A
11
E4
13
0B
2A
ED
02
13
1E
1A
AE
F2
0E
FF
24
F2
E2
FA
F2
EE
E9
15
35
18
F5
DA
E6
FD
E6
19
E0
FA
DF
E5
19
40
C6
33
E2
14
09
DD
A6
E8
FF
D6
16
28
39
1F
D8
38
E3
2D
E4
05
20
DA
D2
F7
26
D7
17
0E
E9
ED
FF
C8
BA
FB
FB
F3
DD
1C
FC
DB
FD
06
15
EB
04
DE
09
F1
B3
00
F6
D8
F6
24
D5
0D
1B
F2
2D
1C
35
15
ED
EC
0E
10
E5
DD
14
FB
D7
EA
2B
E7
E0
0A
0B
35
D8
EA
D5
0F
01
1B
D3
03
18
D2
F2
0F
F8
08
EF
0C
17
2A
19
2E
DB
45
2B
E2
E3
19
12
02
F6
F6
F8
F7
05
4C
0F
F9
F3
36
0A
0B
F9
F7
1E
DB
20
E7
CD
0C
08
F0
C9
05
FA
EC
06
1E
24
F8
26
D8
11
12
1B
FF
E1
D1
CE
24
25
DD
02
ED
08
E6
F4
01
10
DD
19
FE
D3
01
DE
F3
0E
DA
23
E7
E9
E3
F2
ED
D7
01
E6
F7
F0
EF
11
0D
1A
EB
DE
0B
28
EE
FA
23
DD
EC
F2
CF
25
E7
EE
22
EE
ED
EF
DC
14
36
2A
F9
1D
19
2B
FA
00
23
09
0E
E8
DA
1F
E0
ED
06
FD
18
F6
E4
DF
F2
25
06
1E
E5
E0
FF
F2
20
F0
DF
29
E1
25
03
08
14
F7
07
EE
1A
1E
0B
31
E6
12
26
29
2E
F1
03
24
FE
1C
ED
38
20
27
1A
D2
39
EE
E0
1C
08
F8
0D
16
2C
16
0A
06
E1
E0
EA
19
0F
33
EB
02
0D
DA
0F
D6
D6
FB
FB
38
10
2A
EF
21
2D
09
DC
E0
21
05
23
DC
EF
F2
F6
FF
30
29
43
1D
F3
DC
E9
E2
E1
01
EF
0E
E8
CF
D6
12
FE
F8
20
1E
1D
FD
0A
1E
CF
E0
01
E8
2C
0E
18
ED
E8
E0
1C
E7
28
D2
FB
1A
19
FC
EB
2B
43
02
39
F5
1D
F4
19
F7
ED
23
EB
DB
EE
F5
EF
39
E2
1F
0D
F3
D9
19
03
E3
27
E9
16
D5
1D
F1
10
28
EC
1E
05
FF
28
FB
D5
0A
21
DE
1B
31
E7
15
03
0E
2C
13
1D
E4
1E
EB
23
EC
20
FC
F7
F4
04
F7
E8
EE
34
0F
E4
12
E3
01
F5
1E
E5
D4
08
0D
C7
FC
F0
33
FD
23
1B
F5
F1
10
17
E7
2C
F5
D8
27
1F
F2
02
04
1E
19
04
F6
2C
E1
D2
35
DF
29
0A
F1
3E
12
FE
38
19
E0
CC
FC
2B
02
FB
07
0B
DA
E4
FC
1F
18
FB
E7
23
0C
36
1B
F9
DE
F9
E3
06
E8
00
35
0E
F3
D5
09
FC
CE
15
1E
2A
1E
00
E6
15
0D
01
EE
E1
03
14
1E
18
E6
F0
CF
30
E8
EA
FB
F9
ED
11
11
1E
1B
25
FB
07
19
1B
E9
FC
F6
DD
0A
01
30
1C
02
EB
0B
E3
FE
F7
14
FC
06
EB
F0
F8
24
20
F6
FE
37
15
EE
DC
C4
E2
18
FC
DE
18
ED
E4
27
0E
0A
D7
E8
E0
0D
29
16
DE
2D
26
03
E4
F3
07
2F
DE
32
29
29
0C
1A
09
0E
23
05
02
F2
17
25
F2
0F
31
E9
20
15
13
19
31
EE
F7
16
FE
30
F0
2C
E6
15
05
FF
FF
DA
11
20
FD
E8
03
EF
E4
01
E6
E7
11
02
F1
0A
19
15
20
05
FC
0A
F3
12
D0
F0
03
F4
0E
EF
FE
E4
FC
FD
D4
03
E4
DE
13
2C
1B
0E
F4
FD
22
E9
E7
E8
33
E9
07
D2
24
05
1B
F9
36
2D
05
EF
F1
2F
29
2A
02
FC
F3
0A
E9
E5
F4
F2
1C
12
11
D8
F6
19
23
01
ED
03
E9
D5
0C
CD
FA
E9
D2
0E
E7
18
2F
35
F0
E5
25
12
E3
25
F5
BB
E4
DC
E8
E9
DF
E1
07
22
32
FA
FC
D2
E0
E1
2C
00
23
23
CC
DE
0E
26
00
24
19
06
08
D1
24
D9
DD
DE
CA
E8
1F
DE
D2
0E
0F
E5
1D
06
1E
DE
15
08
F3
E6
19
04
EF
0D
20
05
1A
20
F0
BE
D4
E2
1D
2B
02
26
2E
D9
12
0D
02
08
24
29
27
11
DC
20
22
1F
07
20
FB
F5
FF
F9
F6
21
DB
FA
08
2C
27
E3
D5
DC
08
1B
DA
0C
06
E3
06
D5
D0
F1
05
FF
05
D9
DB
04
CE
0D
E9
F7
F0
19
1A
23
FB
E7
D1
DB
F7
24
00
0B
FF
EE
21
E0
EC
CA
D3
25
05
F3
F0
22
F0
EA
D4
28
F2
DC
1E
0C
D4
CA
D6
DB
D9
0A
1A
CF
ED
22
E1
FE
D4
F7
17
2A
DC
11
F7
14
F2
19
F6
E9
D3
E4
F4
F9
1E
FF
ED
1B
ED
03
07
20
26
03
E6
E4
FB
1E
26
EE
E7
E2
D7
FA
14
10
2B
09
F5
2F
ED
24
1F
1C
FA
D7
23
FE
1E
FD
1B
25
F0
DA
1C
1C
DB
44
0A
20
CF
11
D9
1F
0F
E8
22
23
10
CF
D8
E0
DE
EF
F7
15
DC
0B
07
E8
0E
18
DC
07
FA
DE
F9
0B
15
23
2F
26
FB
06
10
2C
EE
E7
20
D8
E7
05
E3
2C
E6
18
1D
F7
2D
ED
1A
F9
23
DC
DA
CC
D8
FB
27
11
EA
DE
09
0A
DE
EA
30
FD
33
1E
F9
E3
1D
06
DF
F8
E2
1A
16
0D
20
EE
0E
10
21
2C
1B
17
F9
07
EA
EA
19
DE
DE
CF
25
12
FD
F2
F2
F3
30
20
0E
1E
00
D9
DC
26
DB
FD
1F
15
14
EC
D3
E6
22
E9
0F
F4
2E
FE
FB
FD
E8
08
D7
D5
1F
19
2F
15
E7
DC
F3
E6
0A
27
EE
18
10
D8
0C
0E
D2
F3
D6
DE
FD
0C
29
00
14
EE
DA
FB
F3
FD
F0
EC
E2
F5
D9
FE
02
0B
E4
38
06
E8
02
F7
01
14
E4
DE
D8
27
23
20
E5
25
08
F1
D1
E6
10
0F
22
DF
05
F4
29
1B
D5
F2
EC
DE
12
1B
F6
03
D4
0B
DD
07
E8
24
0C
27
D7
08
0E
1E
D9
FD
DC
12
0A
2E
2B
00
05
D2
0B
09
F4
DA
20
D7
DA
1D
F6
E5
22
E8
DC
D7
DE
E8
DA
FE
CF
F7
03
DB
02
1A
F8
1A
DC
15
EA
FE
08
E4
D5
2D
0F
2B
2E
21
00
0B
11
19
07
17
2F
DE
F8
28
F3
31
2E
FA
19
EC
FC
0A
0B
DE
FE
0A
D5
F9
0D
2D
F9
FB
1C
E5
DA
0B
0D
F5
13
0F
E6
E8
E3
E3
CC
2A
15
11
14
2C
E7
DD
F0
19
13
22
03
1D
25
26
28
02
CB
0E
F9
0A
F4
23
F9
E2
EA
F2
F4
16
CF
19
DD
E6
D9
F3
2D
E0
E9
E7
FA
D4
D4
03
E7
1B
25
0B
0B
D1
D8
D6
FA
DF
0E
2A
D7
1A
CE
09
26
F8
F9
1E
29
05
F2
0C
12
DD
05
F8
0F
EC
E6
D4
E3
0F
F8
27
FE
0F
25
FF
02
0B
00
08
07
D6
00
1E
1F
F1
DF
E5
F2
EC
27
2F
EB
E2
DB
DE
11
06
ED
23
FF
D1
CF
1A
10
11
CF
F1
1A
24
D6
1A
19
28
D5
F0
DC
03
1B
EA
DB
1B
DC
E5
DF
EE
FE
EC
EA
DF
0F
3B
EF
20
03
EE
EC
F7
E4
21
F6
DA
02
3E
EA
1E
0F
3A
F4
F6
0F
22
F4
1B
0A
EE
DA
DF
0C
FF
2F
09
0F
FE
F5
3A
02
E9
FD
25
2F
06
EC
F8
17
FE
0B
11
DE
D8
12
0F
E2
04
1C
F8
D7
3A
D8
D1
DE
23
21
0F
20
1F
DA
D2
DD
1F
DD
D3
FD
ED
F4
ED
E3
F0
1B
1A
EC
03
0F
19
CE
E5
2A
F5
E5
16
0D
0F
E1
EE
2C
29
13
FD
29
0D
F5
EB
1C
36
DF
FB
28
ED
0C
08
12
05
E5
F5
F9
04
12
15
10
D0
E1
FC
23
19
0E
E8
D5
D5
0E
D0
E5
F4
D4
EF
11
D5
19
CB
08
28
19
0F
DD
07
F5
CF
06
18
E5
1C
23
D7
F6
2E
3E
08
1C
E3
EA
02
EF
E9
EF
0F
EA
17
05
F4
23
FF
2D
39
E5
DA
29
E6
FF
FB
EC
1A
FF
E1
D3
06
2C
E9
26
23
F6
16
FD
ED
08
15
F4
F1
04
34
39
10
E5
19
02
0A
D0
E7
D9
23
04
26
D6
0D
1E
25
2F
EB
01
F4
1F
03
10
0D
DE
ED
0F
F2
14
00
01
0D
05
28
06
11
C5
2D
FD
19
07
23
0B
E8
05
0A
18
00
20
F1
EF
FF
05
17
D9
11
0A
11
D0
26
F6
0C
13
1C
E7
15
F4
25
01
04
14
D4
D3
D4
0A
EF
E5
15
DC
1A
08
1E
FF
19
D5
E1
ED
0D
E7
EB
E0
FA
D2
1B
ED
1B
F4
E9
D6
1A
DC
13
0C
33
06
2E
EC
DF
0F
03
F1
EF
ED
F9
D8
F2
FC
ED
F7
37
11
D1
D8
26
F1
09
FA
07
21
FD
1E
1D
D8
10
2F
0F
F6
FA
CC
D8
EE
26
CC
0F
D3
07
1B
13
F6
10
13
E5
D8
04
33
1D
D3
FA
11
CB
FF
EC
24
EB
E8
FC
F2
17
ED
D2
00
EF
35
36
EB
1F
25
F4
F4
03
D9
2D
F7
0F
28
37
11
04
D1
1E
E7
ED
FC
D4
DD
3A
D2
D1
F0
E6
0B
FD
30
27
E6
D4
E5
E8
F2
0A
E4
E1
31
CB
09
09
F1
03
38
C8
18
27
D7
1A
F6
E9
09
1F
0D
17
DD
11
10
02
17
D7
FD
27
E1
F3
F0
3C
D9
3E
EA
FD
DC
D9
EF
06
F0
01
DC
E7
0E
F8
31
0B
EF
39
2A
E1
2D
DE
0D
03
1B
D5
23
15
05
11
14
19
2E
CC
0B
F8
15
FF
F4
2B
E8
DC
F5
17
0E
14
00
F4
D9
03
14
05
2A
1E
E2
C6
D7
FA
C7
03
D5
E3
1A
03
F8
15
E2
21
CF
EB
F0
E3
FF
CA
C6
F5
F2
E1
11
EE
D1
FD
F5
FF
EA
FA
E4
21
DD
EC
28
1E
1B
F0
E6
D8
0F
E5
2D
F4
EC
D8
06
0A
DD
E6
F7
F5
E3
F0
0C
D4
18
DA
27
DC
2C
F6
13
DF
04
DF
D1
0C
0D
27
22
FC
D6
FF
20
03
07
EB
E9
F2
1C
E1
26
E3
16
D9
0B
0D
D4
06
28
EE
EE
1F
20
E8
F7
0D
E3
07
E9
FA
D1
19
2A
04
0B
F3
1C
16
09
EE
0E
D5
E7
D3
20
E8
19
2A
D5
16
2D
1D
23
EE
2F
F8
F0
2B
F7
E1
1F
ED
0D
18
08
ED
FB
FE
FE
FC
12
DE
E2
D5
16
E8
E0
D8
F5
2A
DC
14
07
F8
DC
E8
E6
0F
EF
23
0F
E5
16
28
E5
2A
E8
13
06
E3
21
DA
CF
03
F5
D5
F2
F5
00
D2
2A
13
28
E4
21
15
F6
00
1C
E6
06
D8
F7
24
DF
D9
29
13
F3
DC
21
EA
E5
1A
16
E1
24
F9
FB
26
D8
25
13
E4
E8
DB
09
01
07
20
D8
27
D0
D6
07
2A
E1
D5
23
02
EC
D5
DE
27
0E
E3
DE
D0
07
06
DC
04
DB
0C
2C
26
F6
EF
29
E6
25
22
0B
DE
10
01
FA
DB
21
09
20
12
DE
19
EF
02
23
06
E3
E2
D3
0F
E9
D4
EC
E1
2E
E1
D2
ED
06
F7
18
1B
D4
14
E6
25
DA
2A
D1
D2
29
04
DD
11
0B
DB
D8
DD
14
0E
F9
0B
13
E9
F8
0F
DB
D6
DF
0D
DC
21
FA
FA
2C
1D
0E
DF
0B
E6
14
D4
CF
2E
FE
DA
E0
D0
F4
D0
04
21
10
0C
12
DE
ED
D9
03
D8
EA
D3
24
28
22
E1
D6
E5
F9
EE
1A
0A
F4
27
E0
05
03
07
E4
D5
E5
02
0C
1E
FE
30
EB
D0
0A
30
F5
1B
24
ED
19
07
F6
E9
03
EA
D7
FC
E8
E3
06
FF
E2
ED
D1
F8
26
E7
E1
EB
F7
28
0D
DF
E6
17
10
E0
D7
D5
05
02
07
FC
0E
E8
2B
F1
F9
28
E4
0A
19
EA
13
DC
06
22
EC
09
19
1C
10
E6
E6
D4
FB
D0
0C
24
23
D9
D2
E9
07
F3
2F
F0
1D
FB
F8
F9
15
D7
06
E8
D6
07
D4
D4
00
00
D3
39
FA
DD
E3
01
0A
25
20
2F
E0
F5
1C
FE
F9
D4
2A
FF
06
F2
E2
1F
FB
FE
F7
FB
ED
12
25
DD
FC
27
FB
F8
FD
F2
0E
F4
D3
FE
19
09
EA
0E
03
E5
EB
06
F1
2B
F2
CF
DD
FB
FD
D4
F5
10
D6
11
26
13
18
FF
FB
24
15
F0
1B
18
01
EA
F4
F5
DA
D1
05
03
DF
F4
E8
0B
11
FF
0C
0A
ED
25
F5
E8
00
E5
EF
3A
EA
EF
02
22
26
1D
F6
EF
22
19
E8
EF
35
EE
12
F3
0F
F8
30
FB
21
E4
D9
FE
D8
F3
E4
0A
0C
25
0B
2D
07
E4
F3
FA
FC
E6
D4
FC
07
14
D8
D7
D8
0E
F9
E7
E1
0E
CD
13
DD
02
DD
EB
EE
E9
D7
F2
02
1E
29
D4
05
29
D7
13
D2
DD
06
0E
EC
D3
EF
0C
D4
2D
14
23
10
0C
1C
13
E0
09
DB
D0
23
06
E0
EC
DD
DA
D1
15
15
1E
CB
DD
DC
08
F4
E0
04
09
ED
06
2D
E6
F5
1B
F2
DD
EC
23
27
0F
00
D8
FC
1B
12
33
0A
E9
E9
11
34
E4
CD
15
E2
09
11
F6
19
D4
04
FE
0A
31
0F
D2
EF
D0
26
F8
06
E2
27
D7
10
D1
09
07
12
E8
E0
2A
BF
12
28
1D
D4
0B
04
08
29
24
F1
2B
00
25
16
19
28
F7
17
2C
1C
F1
06
34
F9
F4
E3
08
0A
EC
F4
0C
F8
E6
04
07
30
F4
06
13
E5
1A
E6
0B
06
1C
F5
23
19
17
20
40
F6
24
2F
18
34
21
1A
2B
E0
ED
E5
D7
35
E1
E3
09
21
23
0C
31
EB
E8
F0
01
07
E4
D6
17
DE
1E
09
FB
2A
FA
F9
23
01
B8
01
D8
E6
1A
FA
F4
07
13
E7
11
0E
21
FA
07
DC
0E
DC
1D
0A
2C
29
F2
19
EF
30
3E
E6
E3
12
0C
2C
05
03
1E
E8
EB
40
29
E1
22
0F
06
E7
35
20
2E
0F
05
E7
0E
E2
D8
FD
0F
D7
FE
DD
0E
2F
01
EC
06
11
16
11
0B
FD
05
EC
02
EF
26
0A
F9
05
2F
D9
2B
DC
FF
18
03
0D
22
05
1D
0A
0A
FB
06
23
F7
21
34
28
05
2C
36
1D
04
FA
EF
F0
E2
22
FD
24
D5
FE
2A
E9
C0
0B
F9
F7
FB
40
F1
1B
11
1C
2F
F6
28
E6
16
F5
F4
F3
13
23
1D
0C
F6
E4
19
FC
F3
18
01
F4
1D
05
E1
F3
F4
10
FF
19
ED
DD
EA
F8
09
DC
20
F4
E8
F2
DC
27
FE
1B
E6
15
21
12
16
1B
E1
DC
02
01
23
27
E4
F6
FB
2B
2E
E4
0D
37
F6
B7
E6
1D
20
20
F9
05
B7
EC
1E
EE
00
22
18
36
E7
0E
0B
1F
0E
2E
2C
0A
E6
11
CD
23
12
27
E8
15
DD
22
F3
F0
1D
1E
DB
11
EE
0B
F9
CB
15
D6
1D
36
1E
03
29
D4
13
3C
1A
FA
15
DB
25
10
EE
F4
0E
E2
EA
F6
F1
1A
FF
E1
E3
09
C6
E6
30
F3
E1
FE
3C
46
12
EE
EE
2A
11
D0
0A
D9
FD
07
0F
E7
21
F4
ED
E9
0F
F5
F8
E0
2F
1B
0E
DC
F6
D2
E2
1C
D0
01
E5
07
1D
FF
E2
F1
18
D1
1B
E9
01
1D
F2
30
EB
D4
03
08
10
EA
E5
25
0E
F9
DE
D8
01
E3
13
1B
E4
D4
CE
06
DF
DA
D2
11
0A
E7
23
D5
37
EC
F8
D8
1B
2F
F4
DA
33
DC
E0
10
21
D2
27
D8
C4
DD
0C
E0
0D
EB
EE
29
EC
1D
08
09
1E
DF
0F
FE
22
F1
F7
16
EA
1D
09
26
0A
0F
FD
1D
0B
F0
E3
F0
2E
F0
E2
2D
DC
00
15
1A
08
1F
F7
DF
2F
E0
1C
D2
F5
D7
01
17
D9
DC
F0
09
18
FE
1B
02
D3
FE
18
F6
C2
CB
07
20
00
14
0D
01
07
2E
F8
2C
1C
FB
11
F7
08
DC
D7
FA
11
22
17
13
21
28
DE
15
19
F3
26
FF
F1
D5
F2
F8
13
0A
E4
E4
28
F5
30
FE
EF
EB
D7
17
03
19
10
1D
28
DE
FC
FE
FB
08
F1
17
E1
D8
D6
0E
F1
08
09
21
E2
EC
E1
D7
F9
F7
09
DD
05
E4
1B
C9
16
19
13
0D
EC
D9
E6
D6
E6
1F
1B
00
09
FC
DD
F9
2A
EE
04
05
EE
F6
24
F6
09
D8
14
F2
11
E4
0B
20
16
EA
D8
08
E0
17
25
F2
04
17
0D
0E
F1
3B
F9
09
DE
35
01
F9
0B
E5
E8
27
DE
F0
35
03
FC
1F
25
04
2E
0C
1A
2A
0A
27
D0
06
21
FE
05
F4
2C
F2
1F
0D
E9
15
18
F6
0B
16
20
EA
F7
00
E5
04
04
14
F8
FB
28
F6
07
07
00
F3
E6
0E
F3
FB
0E
F8
1D
12
FE
E4
E5
19
03
F4
E8
D7
FA
2C
DB
DB
ED
FE
1D
24
E0
D1
06
CD
25
3C
DE
F3
F6
E5
01
07
24
F0
FA
27
EE
27
D6
1D
E8
F1
13
17
DA
2D
F9
F0
1F
E8
FF
27
21
0C
F5
EA
E8
04
EC
0D
EF
F7
2B
04
D2
18
12
2A
1E
21
23
05
29
FE
13
08
29
E3
09
F0
0D
EF
CE
F8
EB
DE
F4
1B
D8
11
1E
DB
DC
0C
EE
2D
18
1B
D8
D8
06
22
0E
DA
0A
25
27
CB
E0
02
FD
EF
DD
D9
02
10
DC
EC
DB
2A
0C
34
20
09
23
1C
F7
F4
0F
E6
E2
35
26
D5
28
E5
2D
D4
08
E1
0F
E2
31
08
0D
29
20
38
22
28
F3
FF
28
ED
FD
11
F3
03
11
10
D2
09
F6
CD
15
F1
DE
CD
E8
EF
23
EC
10
16
EF
46
F6
DE
DC
F7
28
1C
CD
FE
D1
11
06
E2
E2
FE
18
FD
F7
31
D9
27
12
D7
46
06
16
F2
D8
E6
0D
F0
25
16
08
D9
E4
F2
F5
E8
D8
0F
D0
FC
1D
1A
39
1F
00
07
A1
F3
DF
F0
24
17
C6
11
23
E8
F9
25
01
D3
2C
26
FD
1E
E0
F6
2A
1A
C8
C5
E0
DE
D5
24
0B
DB
DE
F8
DB
19
FA
DE
F1
F7
AD
EB
E8
14
19
0A
04
D0
06
06
01
F3
ED
50
D4
D3
DD
4E
E2
0B
F9
F7
D3
19
E9
26
E7
06
05
EB
F0
EC
DF
F8
DD
05
F4
DC
F3
F7
0A
DB
DE
01
0E
DF
FB
E6
0B
CF
E5
D6
21
1F
E5
26
1A
EB
0D
16
07
24
D5
D6
DE
EC
EA
D8
EB
18
E7
0D
FB
F6
EC
1D
F3
0B
2F
25
DC
05
11
E5
09
04
EB
FD
EE
17
20
EB
EF
E9
0F
08
34
0B
04
17
D1
D9
C9
DD
0A
23
D7
F0
15
CD
23
DE
E7
E0
CE
15
DA
0B
F4
CB
EF
0F
1C
D9
EE
EE
21
F6
DC
0D
D6
0B
F1
E1
0C
FA
DE
D3
E9
D9
21
F5
02
05
DE
02
0B
01
28
F4
D1
D7
E5
FF
D3
F4
FA
04
F8
F2
E6
F0
D0
EC
01
E4
14
01
E5
E8
1C
16
0F
03
F8
D1
EF
E6
FB
E7
FD
DF
FF
F0
0B
2E
21
29
FB
18
DB
01
02
26
E1
F9
1D
EF
1D
FF
1E
0F
28
30
34
E4
16
DB
FD
FE
32
F2
EB
FF
12
1F
0B
20
08
03
E0
3A
12
E9
17
F5
F9
2B
DE
FE
19
01
FE
0A
E5
F8
F7
13
D8
0D
F6
E5
DB
00
F0
F8
29
1C
1A
01
E7
DE
E7
2E
E6
FC
F8
07
E0
10
D4
FA
E8
09
F1
E0
F8
0E
EC
12
0C
F6
06
EF
18
E1
00
16
DA
DA
26
37
D5
25
D3
2B
E5
F7
FA
15
2C
F5
0C
10
E2
1A
11
1F
F9
DB
09
37
2D
2C
20
14
2C
EB
FE
DD
0A
12
11
EC
1F
E5
1E
E2
29
25
21
18
1E
D7
E3
D6
D2
CE
0D
14
24
08
1F
1C
23
1B
CF
0C
2B
23
09
23
E7
FA
F4
F3
0F
FB
ED
00
E3
0B
2A
D7
E4
0C
24
09
0A
13
0E
E9
F4
FC
E1
F2
EF
E7
EE
FE
22
37
E7
F9
0A
04
34
2D
12
2C
40
1C
16
0F
24
DF
DE
DE
0E
DC
10
24
DA
FD
0C
F6
05
1E
26
09
E6
D8
27
0A
12
D2
37
2F
CF
08
1F
E5
25
F2
F2
D1
D5
E6
F8
FC
FF
D3
E1
33
F3
E9
C8
EA
C9
F8
0D
DC
17
FA
F0
17
E0
08
1C
EF
1B
1C
3F
DB
27
EB
E2
EA
14
F5
1C
E8
33
35
CF
04
0E
16
3E
EE
27
F7
F6
35
02
E9
DB
F3
10
FC
FE
C2
0C
07
E7
E5
D6
D4
23
E3
EB
CD
33
1E
0C
1B
F7
ED
E7
45
DC
00
E8
F6
F9
E1
C2
F8
D8
26
D3
DD
F6
0D
C4
EC
10
21
EA
08
E9
15
D9
1F
0D
F7
03
D5
FB
06
F2
12
FF
DE
FE
1B
22
F9
F0
EF
0E
F6
F3
27
F2
1A
02
39
EC
13
D0
05
20
23
24
ED
E5
F5
F8
E1
DE
D8
0B
1E
D3
DB
FE
F4
FB
F2
C1
E9
30
EE
E0
DB
E6
FD
FA
1A
E6
26
CF
D5
01
2B
D3
0E
32
10
E1
E9
09
19
FE
C3
34
1D
16
15
EA
02
09
E2
2C
26
07
20
0A
F8
30
F3
E0
0D
F0
DD
1E
24
2F
15
22
E8
E0
0B
CD
E8
E7
DD
C8
03
D3
DB
FC
0C
D5
0D
1C
F8
10
02
1D
D6
FE
24
0F
0E
E6
30
27
24
12
03
08
0F
F5
16
F6
F4
D7
03
F9
F6
FB
1A
F9
E6
F1
09
F9
2C
37
F4
FD
22
25
F4
09
E9
FA
FF
20
02
23
EC
DA
39
10
33
2D
21
EB
F6
22
0B
E7
03
06
E7
02
1F
E2
17
FA
20
19
E3
3E
1A
F8
FE
11
E7
25
F9
F8
F1
09
E6
14
29
FF
2D
FA
E4
FB
04
F3
F2
E7
DC
EE
F1
0F
FD
28
F8
0A
02
08
F1
E2
EB
CE
D2
21
D9
DE
F5
2B
16
F1
29
2A
E3
D3
13
ED
0C
25
05
15
0C
F3
06
D8
12
E3
0C
14
03
F7
1C
05
13
CE
15
FE
F6
DC
17
D9
1C
15
1B
D0
FC
D6
F2
07
07
CD
23
ED
23
23
D8
D9
D4
D6
0B
20
F2
FD
DC
E8
EA
0D
23
D6
FF
E0
23
01
ED
F4
0A
01
2C
F0
16
DA
18
22
17
0B
01
DF
F4
0D
19
DA
1D
07
0D
0C
E6
CB
DF
22
12
15
EF
E5
FC
F2
05
F7
0D
F2
FE
13
17
EF
06
FE
0C
CF
14
1D
D1
E0
E4
01
16
0A
E4
D9
17
26
FE
DD
00
D9
14
E4
16
EC
CF
08
10
01
D0
29
D5
23
E2
1C
10
27
06
F5
1C
E3
29
28
1A
CE
16
D5
1E
E9
0B
D4
08
E9
FF
FB
D0
E3
15
12
F9
22
ED
CD
0A
1E
1C
14
E4
19
0A
2A
FA
EF
CF
E4
E6
D7
E3
F5
CD
F6
EB
E1
06
17
F3
FC
0F
DE
F3
1F
EE
12
D4
CD
CD
19
EC
19
CE
D7
F3
FE
0E
19
FF
ED
17
01
F8
D2
CD
F7
F7
F2
CF
01
05
E4
05
27
FC
19
15
20
D3
F1
23
20
24
26
D7
0C
E9
1B
05
12
0C
07
E3
1C
21
FF
D7
FC
1B
27
08
24
F9
FB
D7
05
F4
1A
E8
1A
F0
F7
18
29
CD
D6
E9
1A
F9
09
25
F2
CF
09
28
F5
FB
F6
F8
D8
FC
1A
DE
20
18
F4
05
28
FB
01
E6
D6
1B
10
EF
27
27
18
FC
DA
20
1F
00
13
FD
E2
18
0F
E1
25
11
10
D5
E0
F9
E3
FC
1C
17
E8
1E
D3
F4
21
1B
09
23
E6
EA
12
E1
DE
22
25
22
D5
EE
F4
E8
E1
16
DB
E7
06
FF
0D
D9
EC
29
0A
DB
12
E4
E4
F5
E9
20
E0
06
F4
F2
E4
1F
FF
0B
EA
DF
D9
F4
01
DD
20
15
EA
F6
FC
DB
27
EF
18
17
08
D0
0F
26
12
1F
CB
FA
0F
D0
06
E0
1B
D5
22
10
0D
D1
CF
12
23
1D
D5
D6
01
02
02
EE
F0
07
DC
DB
FF
D1
EE
1E
F1
FC
EF
D8
E2
FA
21
E8
0F
CF
1B
08
E2
24
10
1E
15
EB
E1
0F
1F
D9
FF
F7
15
E5
D5
24
2A
21
25
01
F5
29
F8
E9
D6
D4
18
E3
02
10
DB
E4
D7
1F
20
F8
F0
26
15
06
EF
DC
20
FE
0E
EF
03
0E
2B
19
0C
D9
CF
12
22
03
0B
FA
F6
F8
2B
E1
00
F2
14
0E
DF
F5
EB
29
D3
D0
DB
D0
E0
0A
FF
E8
F6
23
D7
E1
F7
DC
10
EA
D2
FC
E3
DC
15
FD
CF
E2
D7
1F
10
E9
DA
F1
12
EC
0B
E6
E2
E8
F8
DD
FB
12
F1
E5
D0
0C
F4
D7
EB
02
39
ED
DF
2B
FC
17
D8
26
1D
09
2C
E8
E5
DA
E2
1D
FB
F0
05
D6
21
EB
D6
17
06
1C
E2
EE
0A
06
29
E7
F0
D8
FF
2F
05
2F
E2
0E
FB
F2
03
05
2E
EE
F4
EF
02
D7
EE
E8
18
05
F8
35
24
2E
27
2D
0A
16
18
2A
F2
EA
F1
11
E1
20
F2
0C
F7
20
EB
05
00
FA
DB
FA
FA
0D
19
06
16
DA
09
1B
00
01
E9
2A
03
F3
F1
F4
0A
D5
1D
DE
29
26
ED
FA
E3
E8
14
E8
2D
14
EF
25
17
17
F3
29
E8
0F
D8
06
ED
E1
12
F3
F9
C5
19
FE
0B
DC
DF
17
E4
2F
E7
F0
D1
D4
E9
F2
01
01
F7
36
06
F0
17
2B
02
27
E1
F7
18
1D
10
25
EC
22
F4
EF
E8
06
16
14
F2
FF
FC
DD
E3
19
1D
EA
01
32
EB
05
1C
1F
29
C6
E6
E5
1E
F8
12
FB
1F
11
12
34
F9
2F
2C
1C
14
1E
FC
0F
FF
D8
D8
D8
15
28
EC
24
DE
0A
CE
2C
E3
31
F3
12
25
10
E5
1C
23
2B
F7
E5
F8
E3
01
29
14
28
23
F1
1B
EA
32
EF
AA
F2
F6
24
DB
18
1E
FA
16
31
2C
FB
FB
1F
3B
D6
06
29
1F
13
E6
05
F3
13
F6
0A
CF
E6
22
FC
17
F7
CB
F1
25
F7
03
30
ED
F8
2B
1B
E5
04
2D
1C
07
D7
E7
CE
06
E8
D7
1C
1E
20
0D
01
13
0B
14
06
E9
0F
C1
F8
EB
2B
0D
1B
EF
D8
2E
CB
F1
F0
1D
17
1A
13
FF
0E
07
06
FB
1B
E6
D2
04
F0
42
0F
1E
CD
3E
26
C9
0A
E4
11
04
2B
F9
E2
03
2C
EF
22
E5
F8
21
2F
C7
D3
2D
FC
18
FA
04
38
E4
57
E4
0E
F0
2C
24
0D
F4
DF
D5
D9
FD
25
E1
F9
1F
32
CB
FB
E6
34
13
E0
10
06
19
0E
11
DC
1E
2F
ED
D8
CD
FE
09
1F
CA
09
DC
C7
12
FB
0E
1A
0D
F3
E1
E4
F2
0A
F4
2C
15
D1
DD
E7
26
CF
F2
20
F0
19
D1
0A
10
02
DF
E3
1D
EB
D8
F2
F5
15
FC
E5
FA
05
19
DB
F0
30
E9
26
01
14
E6
11
E0
EE
F2
ED
DB
0B
2D
0F
F4
11
D2
DB
28
0F
12
FD
FA
EF
26
33
EC
E4
04
22
0C
DF
15
DF
F4
3A
3F
28
31
0C
E8
E1
DA
E1
F7
E1
CC
27
DE
27
FF
0E
F8
0A
0E
04
F5
FC
07
1B
DC
E7
F9
FF
03
13
0A
08
FB
E3
DF
F8
0E
F2
29
06
00
29
31
2B
F7
22
18
F3
15
D2
FC
2F
F6
F2
18
E7
24
FD
10
F7
F6
E6
36
04
F2
12
2B
11
05
E9
25
22
15
FB
21
D9
2A
21
E7
05
22
FE
38
ED
DF
32
F4
F8
0F
04
05
EB
25
28
E5
1B
FC
F8
27
3B
04
2E
01
1F
01
26
ED
DD
EB
12
0E
1A
E5
FB
E6
F9
E5
F3
1C
E5
E2
33
E8
F5
E9
22
D4
18
E1
0F
F7
EB
2A
E3
20
F7
04
2E
23
EA
0E
1A
D4
0E
EE
2E
F9
EE
05
17
F0
14
18
0A
E6
0A
FA
FE
14
19
EC
14
E3
F5
07
E8
FA
12
29
2A
FC
FB
F3
38
E6
F0
23
DC
EB
F9
E9
FF
FD
F5
EE
F4
0E
23
2C
0A
18
23
F5
E4
FE
04
13
08
CD
FB
11
0F
CB
C9
FC
CA
DD
E0
FF
DC
C6
27
15
F5
D9
E8
1C
28
20
15
19
EF
06
04
E7
06
F7
F8
F1
17
D1
FC
EE
0C
EF
D9
3B
D5
F1
34
46
D9
F7
23
1E
DF
41
33
1B
E0
D2
DD
0A
07
F0
11
38
07
21
E3
1A
DA
E8
19
11
F0
C4
34
1C
1D
FE
15
28
DF
0A
D5
DC
09
06
2C
F0
16
CF
E7
E1
DE
2B
F9
F6
BB
FC
FA
0A
DC
12
E6
04
ED
1F
CD
10
E6
DD
0B
01
04
09
04
0E
14
C0
31
DA
F1
F8
D8
DE
EF
D1
F5
E7
F3
0F
EC
17
2E
E2
18
FE
44
01
EE
12
3E
F9
E7
35
DB
07
13
EE
0E
1D
19
22
DC
10
2E
4F
0E
01
19
34
F9
F8
E5
29
F4
0F
F4
32
DE
D9
0C
2A
10
ED
DA
0D
C8
23
0C
D6
C7
14
1F
D5
E2
DA
12
FC
DC
E0
C8
F0
E8
E4
13
0E
E6
E2
E2
DF
0C
E9
E7
CC
07
DE
E8
EC
DD
F0
0D
F2
1B
0C
FB
E5
3F
DB
EB
EC
16
D3
F3
DB
E5
01
2C
04
F0
F5
ED
DE
28
0D
35
EA
0E
12
1F
3B
E8
ED
DF
0F
2A
E7
FC
E4
F2
FE
2C
05
06
05
28
FD
0C
F0
E5
1D
08
02
F8
10
E0
EB
1B
18
DD
1E
E9
E7
E5
E9
1E
2F
1E
04
F4
17
16
E3
0B
03
D1
CE
EB
D4
DE
10
0E
E6
F3
09
DA
15
EE
0C
17
C2
26
E9
2C
EE
E5
01
04
CF
FD
1B
D2
27
0A
1C
E2
F8
23
12
0B
14
18
17
CD
1F
10
1E
2A
16
CF
FC
E1
05
0C
EB
23
13
08
07
D6
DD
DE
FA
0B
21
DF
0D
30
22
FC
F6
F0
2A
F6
EA
07
16
21
FD
23
F6
C1
E5
07
14
D7
2F
F3
D8
25
F9
E4
0F
FF
D0
D9
FC
2A
04
15
30
D7
13
33
1A
E9
1F
FB
1A
29
F6
FB
DF
0C
11
30
CF
FE
F3
F2
11
D2
D6
38
16
33
05
02
E4
15
EA
EE
E1
35
D2
14
DC
19
F5
06
FE
27
F9
1D
E5
13
E2
29
FF
24
01
17
E7
10
0A
01
1E
1C
01
1C
F9
D7
1C
ED
3A
27
11
E7
00
11
25
FD
FF
12
F5
04
0E
05
11
EC
FA
07
0C
21
14
30
FE
30
25
39
E6
E0
09
1A
F9
14
24
F9
F3
EA
F6
03
10
34
23
DF
E0
DC
F9
12
0F
F1
1B
1C
15
08
1C
DC
F6
D6
F4
12
03
EE
D4
E2
E6
E2
CF
EE
E9
03
23
13
C8
E3
D1
F4
02
C6
23
0F
02
FD
E7
2A
EF
0A
CF
0E
E5
BE
EE
D9
01
1E
E2
D0
F4
1C
F3
10
E6
E7
18
26
EB
E1
0C
D4
37
E1
E1
05
DE
F3
F7
DF
E5
D7
13
1A
DE
E1
E2
24
2C
09
EC
1F
10
07
10
19
E1
DC
E5
DB
31
E4
25
13
18
23
2A
EE
E5
CD
1C
D7
E3
02
09
2E
22
FD
F2
D7
F5
2E
E3
04
FF
DB
05
E8
EA
FD
37
D4
02
DD
FF
F9
34
22
20
0E
09
16
E9
48
06
D6
D5
BE
1F
C8
1F
12
EB
F7
EC
16
1A
24
07
DA
ED
E2
CE
15
00
17
D3
33
EC
11
FD
32
12
DA
32
41
EE
14
0D
36
D9
1D
2D
0D
E6
01
2E
D8
13
E7
17
24
1D
EC
26
2A
24
17
FA
DC
EA
28
12
C9
F9
F0
02
0D
0B
26
F0
DE
24
C7
30
13
2C
EC
2E
05
D3
24
25
F1
E5
DF
F0
25
1F
CC
16
1E
16
15
E0
D3
F2
17
03
04
22
EE
C3
11
32
E7
0D
29
0F
DA
FF
E2
E1
F4
E3
02
F3
18
32
2C
0A
E7
CE
E0
F8
E4
19
DD
06
11
00
EE
06
DB
FE
30
EF
2C
10
D1
1E
11
1E
0E
10
F0
0C
DD
FA
D5
0C
23
27
28
FA
FA
E4
FF
ED
F6
E8
28
F4
1C
1B
FF
0F
D4
15
C4
2D
15
D7
F5
F8
FF
15
0C
FA
F2
DC
1E
F6
D9
2F
18
DB
04
16
1E
34
FE
F9
E6
CB
0A
F9
F9
F8
12
26
26
DC
33
EE
EA
F1
F5
DF
30
18
04
F3
2E
DE
0D
31
E7
E4
F8
04
07
0D
07
EF
14
F2
D6
08
04
04
CB
11
0A
FF
DE
07
03
15
DE
F5
E4
EF
20
D6
D8
ED
F8
D2
12
19
1D
14
16
EC
D4
0D
24
1D
D1
3E
17
E1
D6
DA
F0
14
05
DB
F2
DC
0D
E1
E7
06
0B
08
FC
DA
01
1D
18
14
D8
23
01
FA
EE
1C
04
12
FE
FE
2A
1D
EA
10
DF
34
19
1F
D9
25
EC
E2
0C
E7
25
06
05
D9
13
09
E6
37
DA
FF
24
09
FA
17
F2
D1
08
D4
E2
EF
E0
10
24
F0
E7
F0
E1
E2
E5
E9
04
FA
E2
2A
E4
FC
25
DA
10
CE
D3
D5
CF
1C
F6
D2
FA
FC
11
D2
11
25
1C
D4
E6
F6
12
CC
EB
1C
FA
EF
01
2B
EE
D1
18
E8
EF
15
10
2A
FB
24
07
1E
DA
05
DD
1E
1A
E8
2B
DD
04
E2
1E
0A
F4
FE
2E
09
F5
01
F4
FF
E5
FC
09
0D
26
01
08
FB
DD
FD
FE
02
D1
21
1D
EF
F3
1D
05
04
F2
FA
06
13
EB
F8
D9
DF
05
FC
FD
0F
C5
EA
15
35
16
0D
2D
25
05
17
07
F4
FB
20
D8
E3
D9
FF
DC
27
05
2A
2B
2A
EA
EB
F4
03
E7
CF
06
DA
E6
CF
D9
0B
F5
DB
0F
1D
01
E4
0E
0E
23
FF
FB
D4
E3
DD
0F
EB
24
1E
23
13
D1
E8
13
17
EA
15
0F
D5
D9
08
F7
F3
01
D1
14
1C
16
11
F8
D0
DD
E0
28
DA
37
EA
EC
F3
EB
CC
E3
D4
08
0C
CF
ED
02
E1
DF
D8
10
E5
FD
F0
CE
24
EC
ED
F6
0F
0F
03
17
E2
23
F2
18
16
2A
30
F4
27
E6
0A
29
1D
E2
0D
F4
06
EA
04
FE
DF
D3
CC
F3
CD
23
0B
CE
07
EC
13
15
E5
1A
F1
09
EA
01
FD
CC
27
CF
CF
F7
E2
E4
E7
C9
F5
E1
CD
22
EB
F7
14
16
F0
19
08
D4
CB
D2
E0
07
0E
E5
05
D4
20
D0
E8
F7
1A
EC
D3
20
00
F0
1D
E8
E1
F3
CD
BB
09
CD
FF
DB
DA
16
FA
D2
D5
E4
1D
02
2E
22
09
2A
18
02
13
2D
0A
03
23
E4
02
12
08
E4
16
FA
CF
1A
28
05
16
D2
F7
E3
06
07
0B
F5
0F
25
0B
D7
DE
00
1A
04
1F
D7
D6
28
EF
0E
E2
F8
0C
E3
30
EF
22
0C
E9
01
FA
22
EA
1C
01
19
23
DD
EB
02
27
09
12
EE
F4
0D
05
02
00
23
D6
03
14
22
22
D1
D9
D6
18
07
0F
D0
05
D8
F1
D1
33
14
10
E3
24
F2
FE
11
F9
30
0D
DD
EA
E9
F5
F8
FB
0B
E9
04
DD
05
D0
28
FF
29
F5
02
02
01
05
1A
F5
15
F3
D7
09
34
E6
07
D1
34
D5
D7
E5
19
E5
D1
16
D9
1E
14
DA
0B
04
09
1E
F5
28
02
17
D0
E4
D6
DD
FB
EE
26
D8
D8
0F
11
20
D1
20
F0
13
E8
00
11
2D
D8
25
27
12
E2
04
26
DA
E0
D4
F6
13
C8
05
F6
1E
EF
12
1F
D4
F9
36
11
2A
22
07
E1
02
2A
D8
33
D9
0F
F9
07
ED
08
D6
16
EE
C9
19
1D
D7
25
00
D8
0B
E9
CD
D0
13
ED
1A
1C
F2
C9
DB
EE
0E
2A
D5
F4
12
E6
04
24
EE
D7
C3
F1
E3
F4
19
ED
DF
D7
06
FB
0A
FC
EA
DF
1E
CF
07
ED
18
2E
03
E1
EB
CC
D2
13
E8
0E
1F
EE
0D
F8
0D
E0
ED
E9
08
33
E8
08
0D
26
1A
19
21
00
0A
12
F4
D1
FC
24
F7
19
16
F2
DC
FF
0C
24
DD
E6
0F
13
0E
FE
D9
DB
2C
1D
00
F4
01
1D
08
FA
2A
08
22
0A
D6
EB
F9
06
E6
CF
1F
EF
13
F2
08
05
1C
1C
CC
F7
F5
19
E1
20
0B
02
02
E7
0A
05
25
D8
CF
D0
C4
D7
CE
F0
20
F2
E1
F1
F3
2D
EC
E3
2A
FD
D9
14
CE
C9
19
FD
EE
19
17
DA
ED
39
F4
D5
F8
1D
1A
F9
F0
EC
0C
2C
0E
DD
D2
10
02
31
F9
FA
09
35
FA
04
28
10
07
39
38
FD
E6
ED
31
2D
1F
DE
F6
07
F8
15
26
E6
F8
02
06
FC
E9
14
D7
29
F5
EE
13
FE
CA
F5
19
CE
29
F1
16
F7
E1
08
16
ED
E1
D4
02
23
03
12
0C
05
28
1E
21
0F
E4
18
E1
38
34
1D
04
2E
0C
08
E6
FD
1A
15
DA
EC
3B
02
04
3E
2D
EA
22
FF
35
F3
2F
12
24
26
05
0A
DB
0A
E0
22
3C
18
E1
E0
F4
31
18
FB
0A
14
09
23
E2
0E
E4
0B
20
F2
22
08
EC
E6
1C
30
F0
F0
0A
0A
05
14
2D
11
10
FC
2E
EA
F2
22
28
11
0D
F7
1B
FB
29
1A
1E
10
E7
21
2C
E9
D6
EF
16
02
32
01
E7
BE
FF
02
38
25
DE
25
17
F6
0E
16
0C
11
0A
08
1D
B4
18
22
0D
15
ED
2E
29
11
E2
EB
3D
1C
07
F3
00
2A
F5
F1
E5
2D
F6
2A
28
27
18
EF
F0
24
17
25
03
10
0A
F7
F6
09
06
D9
D0
E9
2B
0B
04
35
F5
DD
11
0A
00
E5
16
11
F6
E1
E9
E4
F4
0E
01
26
06
1E
E3
00
FD
FD
00
FE
0D
1A
20
25
E6
21
0E
1D
CE
D8
FB
01
E0
E6
E3
1D
17
15
06
17
07
14
D5
F4
FC
21
F0
C3
38
DA
05
B7
25
2D
13
FD
FB
00
EB
D5
30
39
29
0D
35
3C
CD
09
29
EF
DE
E5
1B
1A
33
E5
09
06
1B
0D
21
2D
16
FC
E7
14
19
E9
EF
10
EB
CF
03
1F
00
BC
FB
D3
13
1C
F8
FE
F8
25
D0
DF
07
1E
2F
E8
E4
C8
FC
1D
E9
E8
E9
F9
00
FA
35
D5
D1
38
DE
01
28
29
ED
2A
B6
C3
34
D0
2B
30
38
2D
F2
FF
03
31
34
F5
0C
04
10
FF
EE
01
EC
32
ED
E3
2C
D5
00
E7
0C
EC
F9
E9
20
0F
1B
0D
F9
15
A9
DC
DB
1A
09
1A
E9
CA
0F
2E
13
E0
29
0F
0D
26
C5
02
00
D8
D1
25
BC
1B
00
28
0F
2D
28
16
FA
F3
0F
19
DC
0A
14
E2
DB
DA
14
ED
09
D5
D4
11
F7
13
EF
0C
EE
2D
EB
0A
13
F2
16
E6
F5
ED
0C
EA
28
E8
1B
26
DF
1D
E0
F7
FC
07
0E
02
22
42
0F
11
1B
0F
EA
D1
CD
24
E4
EA
0B
2D
17
34
0B
14
2A
D9
DE
D9
F1
0E
1B
EB
BD
FF
0E
DB
D9
DD
09
FF
25
07
03
0F
FC
18
FD
21
F2
D3
BD
F0
23
FC
F2
25
0E
E6
EF
FC
EE
0F
13
DC
EE
09
1E
06
F4
02
D8
12
0C
FC
13
D8
D7
F5
03
C4
FC
FA
DE
E5
04
18
18
0D
E4
0D
0E
E3
DE
FE
DE
13
04
D1
F6
09
D2
23
19
04
F1
2C
F4
FC
03
07
1A
12
FF
30
4C
2E
3C
FF
DF
06
24
C7
E7
0A
0C
F3
F1
EF
06
E3
29
DA
2D
D6
FA
09
0C
F4
0E
F9
19
3A
0A
28
2E
E9
16
F0
D8
22
39
17
2B
06
1C
05
EC
E9
D1
F6
E4
04
21
23
FD
1F
D1
F0
1B
FC
20
0E
F9
01
14
0D
25
2B
21
F3
0A
DB
FF
C5
EB
DE
E2
1D
EE
19
13
20
DB
EC
F3
EA
EF
29
D5
08
DD
DD
19
0B
2A
02
28
FB
DC
03
14
E8
10
26
17
46
D6
09
07
F9
C7
E0
EE
EB
13
D2
01
20
30
1D
FB
EA
0D
2A
F7
01
F9
19
F3
CF
1B
D4
2D
EB
12
19
EE
1B
19
F3
2B
CD
DE
FC
D5
EC
FD
2C
D6
18
1F
0B
35
24
16
0F
FC
22
21
FA
DC
DE
09
E4
EB
0F
F2
22
29
10
FB
F3
DA
E1
EC
F7
ED
DB
1B
25
27
25
ED
F3
E2
EF
E8
D3
FC
04
E8
DA
FF
12
2A
07
FC
EE
FE
28
01
03
0F
2E
06
12
E4
13
1B
EB
FE
27
F9
D7
DA
08
FA
04
0C
D1
09
2E
F4
D9
27
F7
DC
EF
31
02
0C
12
01
EC
04
CF
EB
14
05
2A
15
18
FA
D9
FC
DF
18
EC
20
2A
32
0F
E3
E6
E8
24
16
13
EA
DD
E6
20
FE
0F
3D
2E
06
24
DA
D9
21
E1
0A
F8
14
0C
06
EA
1C
E8
C8
FC
F3
E9
FD
18
F6
EF
12
F8
05
FD
03
28
1F
09
1E
EB
11
2B
E2
FF
08
F5
FF
F8
CB
D8
E6
23
16
12
2B
0D
FE
F6
EF
17
1B
E2
F4
14
02
DE
04
F6
0B
2C
E8
36
EF
37
21
E0
22
F8
1D
10
24
0F
E0
28
25
DA
22
D6
0A
18
21
E7
EB
E6
15
EA
DE
DA
06
DF
08
1A
2C
01
22
DE
16
FB
08
ED
2F
DC
18
CD
20
E9
0E
F0
00
E0
E4
FE
F3
F4
2C
0E
F2
EC
06
10
EA
20
D9
D3
0C
F9
E7
0E
12
22
D3
28
1A
DF
FD
1F
DB
05
D8
D1
C5
0A
2A
10
28
DB
ED
FF
D6
1D
1B
E9
E3
E1
24
1E
D7
13
CD
D7
F2
18
E5
00
11
14
29
0A
F5
FE
12
2F
F7
23
07
0E
2F
09
FC
03
FF
F2
E4
F2
16
27
F4
F4
22
12
29
28
E7
DF
07
00
24
D9
03
E6
ED
FD
20
F1
D8
18
15
1C
03
28
02
E9
F2
07
FB
0C
09
11
02
FF
03
0D
CF
BD
16
FA
EF
D7
D2
D4
1D
CB
E3
2D
02
11
E6
FD
FC
16
31
24
FB
F6
F4
2C
18
CF
13
28
D2
15
1E
F9
2E
E8
0E
E4
EB
0D
2B
F6
09
ED
08
FD
24
FC
E0
E2
1A
F1
22
0D
08
E9
24
2F
24
D7
FF
1C
0C
03
0D
13
16
E1
DA
04
23
E9
02
0B
08
F1
03
25
ED
E1
38
CF
20
00
22
E8
28
F8
21
2D
28
E7
17
25
DF
21
DF
04
E1
ED
F9
1C
F8
0B
0E
23
E4
EF
2E
02
FE
D2
2B
12
16
0C
D2
2E
EF
2C
E5
21
08
E8
FE
28
26
0D
3E
25
1C
E6
FF
13
E5
D5
DB
F2
D0
07
0F
1B
18
28
04
EB
FB
F5
12
FB
10
FB
FE
D6
D7
06
F5
25
F5
19
22
E3
1F
18
FE
0A
ED
F4
19
04
F7
17
FA
E5
DF
07
E5
F8
FF
FB
2A
DD
13
D8
11
18
EB
E7
DD
E2
1A
21
33
20
1B
2B
F9
DF
35
32
09
F0
21
DA
12
F6
EC
08
3A
E5
09
EE
DC
F1
E1
38
F3
1D
2E
20
E3
F3
10
22
01
EE
F8
2B
0D
FE
1F
ED
1B
0D
12
26
DB
11
F6
1C
D4
06
D7
07
15
FD
E0
F4
E7
F3
E0
16
FA
F3
10
D6
0D
24
FB
2E
FB
EC
2E
D9
F5
EE
E4
F0
F1
E5
1A
10
34
EB
1F
0B
D9
17
EF
27
DC
25
14
21
D4
DF
DD
ED
15
E0
D6
33
F7
1D
28
D8
18
F2
FF
07
05
08
04
2F
CE
29
16
34
11
EB
F6
16
29
F1
E1
00
D4
F6
22
2B
11
E4
1A
FE
EF
29
16
F3
F3
10
D0
24
03
F3
1E
E2
DC
E1
DD
27
0D
20
13
04
EF
DA
14
35
FF
0E
EA
E9
E2
19
FB
16
C2
03
EB
FD
DF
BC
E9
17
28
00
1C
E4
E8
FB
E4
13
32
10
DA
23
E2
04
E4
FF
02
EA
24
FE
F5
FF
DC
15
2C
19
35
1E
ED
0C
D2
F4
0B
EC
D8
02
E2
CD
1A
1F
2D
FF
24
08
FD
2C
10
F1
1D
1B
07
D6
FB
23
05
01
2E
2D
04
1F
F0
C6
D5
0E
19
F1
28
E7
FF
19
24
17
04
1B
FD
D7
00
F4
F6
F1
25
E4
DA
E9
FE
F9
DF
18
DE
D4
1C
00
F4
F2
F6
06
16
D2
0E
E6
E0
FF
10
04
13
0D
BA
0E
07
02
2C
D8
00
C1
DA
1E
E5
04
E2
DD
0A
23
DC
16
1E
D5
14
0D
05
FE
F4
15
23
1A
EC
00
2B
25
FE
DB
E2
1D
20
D9
FA
02
E0
26
F2
15
0C
E2
EA
10
17
0F
F3
07
EA
10
37
15
EB
01
D6
22
03
02
DC
DE
F6
16
FC
E5
CB
1F
1F
12
27
CF
C7
E2
EF
EE
02
09
FE
3E
DE
CA
08
F0
F9
1C
EE
F5
EF
ED
FD
10
D4
D3
23
FB
26
DF
33
EB
F7
14
FF
C7
C0
CB
FD
D3
F4
04
06
1C
28
27
F8
F4
FA
23
F6
25
32
CE
3C
F9
34
1B
24
07
0B
3A
1E
10
19
22
F9
EE
4A
1D
EA
EF
F1
EA
DC
16
DC
00
DA
01
2D
E9
19
DB
1F
14
E3
0A
FF
EF
D6
F9
FF
E8
F7
F9
FE
19
14
28
21
07
11
1B
EA
DB
FC
07
10
D9
CF
E4
13
E5
F6
E0
D9
1B
F1
E0
12
1B
28
EA
03
0E
EB
27
CF
27
00
13
04
ED
E2
F7
E0
F2
E6
16
E1
D9
DF
0C
0B
24
F3
FD
E4
E1
22
14
2A
1F
FF
1D
1D
CD
0E
02
27
18
07
1A
EB
CD
D3
11
EE
F1
CE
FF
23
23
DF
DC
1B
05
FD
0C
EE
FF
F1
1C
0D
17
26
DC
E6
CF
EE
F4
DA
D4
E4
2C
D0
0B
D4
D7
FF
0E
E5
E1
2A
E7
0B
03
1F
0B
0C
09
13
F4
16
D0
EA
D3
E2
DE
F0
DD
25
F4
15
1B
D3
E1
D3
0B
FA
EF
20
DA
CD
05
2A
CD
D9
CD
D9
29
F4
F2
2E
18
ED
26
F9
E2
05
04
1F
03
17
0D
F8
10
18
14
2C
D0
1F
14
E8
D0
05
F7
14
EA
22
1B
E0
F1
03
E4
F1
F8
F9
D3
FC
16
E1
F3
E2
0C
E1
D9
D9
19
F1
DD
F3
0D
EA
16
25
14
E2
E3
18
1A
F8
E0
21
DC
DD
18
EA
D8
ED
FD
D3
D3
0E
F3
ED
20
08
16
11
E6
09
E2
2C
CF
21
E3
F3
07
FD
17
E4
29
14
E7
E9
DB
F2
0D
1F
1D
D4
F7
E0
04
27
10
F6
DD
FF
CD
D4
D9
19
EB
21
D5
F1
F6
E1
05
F6
0D
0E
CE
20
CD
EF
CF
D9
E1
D8
D3
17
FB
D5
13
CF
06
DF
EB
E0
2A
EC
DD
1F
0F
1C
E3
03
25
EE
E4
19
05
EE
FF
0B
DD
E1
D9
0F
10
CF
04
DB
DE
26
14
E3
F4
D2
EC
25
FB
E0
18
F1
DC
02
0F
0A
D4
FE
FF
D0
EA
F7
0F
D1
25
0C
F7
2A
F1
24
F3
25
1B
27
0A
0B
E7
18
ED
D3
21
1A
0B
11
15
21
D3
F8
D7
D2
FD
01
0D
D8
CF
F4
25
D6
29
14
F6
1D
1A
DB
F7
F0
DC
EE
EF
EB
0C
CD
FC
EF
03
01
1B
D8
FF
1D
25
F1
03
FD
1F
D1
27
F7
D2
F0
F1
E0
DA
0E
E3
01
16
E3
17
12
E9
DA
03
12
17
25
DA
E0
13
19
D9
D9
F1
02
17
F0
DB
FC
FE
E3
D3
04
18
D7
2A
FF
1D
23
13
D5
DC
12
28
F2
FE
F0
EF
12
EB
0D
FF
DA
24
E6
DB
05
DB
FA
26
D4
19
FD
10
FA
F5
E4
D3
29
0A
14
ED
EF
EC
F8
F0
02
E8
F3
E7
FD
E5
F6
08
DA
F1
0A
D2
EA
D2
CF
E5
11
18
F7
D7
E4
EE
17
1F
E2
D3
0F
D7
1F
22
FF
D0
FC
FA
DF
EB
FF
E4
09
27
25
D9
E4
0D
09
0C
EF
04
1A
27
29
E7
15
18
FD
07
24
E7
E4
E3
24
FF
0C
05
EE
F3
28
09
12
CF
F1
DC
0F
E9
CD
27
E3
F9
E5
00
2A
FC
04
04
05
F1
F3
1F
E9
D6
DE
F7
ED
19
0F
0C
E4
D7
10
06
12
ED
03
0B
0D
1A
E8
F3
F2
20
23
0F
06
06
02
ED
D7
25
FF
EC
ED
CE
20
0B
19
25
E2
11
E5
0C
1F
F5
27
10
C1
D5
F9
F5
18
D8
E3
FC
25
E4
FC
F2
EC
D2
F8
25
0A
0E
1E
37
DD
D3
FC
FA
ED
F1
E3
E4
DF
19
F0
34
0F
0D
15
FF
1A
E4
23
0C
DC
E2
FA
E6
EE
DA
23
21
2B
2D
DD
E6
1D
DE
09
18
09
0A
0F
21
F3
11
1A
D5
E5
17
F0
E7
18
25
05
01
D6
E3
0C
DB
04
27
22
E2
DA
F8
2E
EB
E0
DE
0F
FE
D9
E8
26
1E
D5
CA
C8
1E
0D
0C
1F
E8
1C
2D
DE
2A
E1
FC
0E
DB
26
23
1E
1B
05
ED
EE
EE
14
EB
E6
F4
0D
13
2B
E6
12
ED
1C
D6
2C
24
DD
33
F7
14
E9
DF
E8
14
1F
FC
07
2E
1C
10
2D
E7
1C
0C
FE
1A
07
09
0F
FD
2A
EF
DF
E7
D5
F9
F9
EC
0D
2B
14
E9
EE
E2
14
E9
2E
ED
F0
DC
D9
02
27
09
0A
1A
27
21
E3
04
ED
E7
05
27
E8
D4
00
31
18
1D
DB
FB
08
1A
F0
F8
0C
0C
EB
07
0D
2C
27
16
22
EA
DD
09
30
00
D8
E0
FD
1D
F1
F4
F4
0B
FB
ED
1D
FF
DD
26
26
10
F8
17
1E
D8
DE
E1
FB
30
F1
05
E8
0D
E5
E5
D9
0B
DD
1D
F0
F0
1E
F3
21
F2
EB
25
28
F5
BD
18
08
03
D1
FB
22
E5
E1
1B
03
FF
18
D2
F8
FA
F6
EE
1A
12
E2
EA
08
07
07
05
DE
08
34
00
E5
FC
1D
03
21
F1
FB
16
0A
03
10
F8
10
06
1A
16
12
FE
C4
09
0B
CD
EC
1E
2C
18
D4
1B
EB
23
05
E1
E1
03
01
0A
00
0C
10
17
DB
0C
E5
E0
13
DD
47
F7
2E
0C
F8
F3
01
16
FE
E3
DA
06
28
1B
0B
DB
28
D3
F7
2F
10
F1
20
1A
03
27
27
E3
2F
ED
E7
0C
0B
E2
F4
F8
FA
13
04
09
FC
0B
E0
22
FB
14
E1
16
16
0E
EC
20
20
F6
D0
1C
18
15
1F
E4
14
DE
13
F0
F4
EE
35
0F
18
D6
EC
EC
D6
20
1A
0B
F9
F4
E5
E2
09
F1
F1
F2
11
EC
20
09
25
F7
CD
10
D8
EB
23
2C
00
C5
D2
0C
F4
ED
D5
08
E1
E1
F4
1B
18
08
E0
05
37
28
04
E2
AA
09
04
04
E8
05
1C
FD
EC
27
E1
1D
30
41
F9
13
09
41
FF
D6
27
0D
01
EC
F5
F3
04
18
EB
FD
F9
08
D6
DF
F0
25
D9
FF
F8
EC
CF
D0
03
FF
1E
00
FA
20
FE
F1
19
E5
E5
2F
02
F2
D6
DB
D6
ED
F1
00
F1
FB
0C
E8
08
0C
F8
E3
01
18
19
FB
12
2B
1D
DE
2C
1B
08
1B
F6
FC
0D
EF
0B
E2
E5
0D
0F
DD
D6
31
EC
0A
10
F5
31
16
F2
16
2B
DF
CC
ED
D4
18
14
3B
14
2C
DE
0F
E7
DC
0A
04
F9
11
F1
0A
F5
28
0A
D8
D3
19
03
F6
08
26
CD
06
FA
0D
28
15
22
DC
E9
DB
25
F1
F3
0C
F9
EE
EB
F3
11
F1
F6
32
01
FF
35
FE
02
EB
34
EF
12
E9
1F
EA
DF
13
E1
2D
0E
C6
E0
F0
D2
F3
FC
0A
15
2C
03
0F
04
CF
0E
10
FF
E3
02
FB
E4
1B
0F
10
0A
E5
E1
09
0B
01
32
29
F3
13
D5
31
D1
F8
DE
D7
FC
11
FB
17
09
0B
FB
04
D3
F9
0B
11
29
CE
DB
EC
F5
15
F6
E3
DB
E2
17
1E
DB
19
20
DE
F8
24
2A
C8
E7
15
31
20
13
0E
03
F3
DB
23
0B
FE
D9
E4
1F
07
E6
ED
F3
EF
20
14
18
37
05
F6
1E
29
E4
F8
4C
34
2F
11
13
08
21
F3
15
14
E9
F3
00
E7
F6
1E
E3
00
1B
F7
43
00
D1
DD
39
3D
07
25
EA
25
0C
EF
20
E8
E4
01
ED
27
EC
33
ED
EB
FA
04
2F
CF
02
DC
E3
FE
15
E2
05
F3
EC
ED
04
EF
DD
0D
0C
2D
19
DA
22
16
33
F6
FB
13
E0
F0
2A
12
F8
1A
FA
15
1B
20
F0
D2
08
16
0C
ED
28
F4
04
21
1C
0A
E8
E6
1C
EB
E8
10
19
34
ED
28
E8
FF
0B
04
17
2C
29
E3
26
F4
DC
23
0A
F6
23
1F
FC
F2
F3
03
03
E4
0C
36
05
E2
20
22
0B
DB
11
FD
DA
E1
0E
1A
FD
E4
13
E4
05
07
10
32
25
D6
13
E9
F5
F2
FB
C7
1E
DE
04
DD
35
EE
0A
0E
E9
08
E9
25
C7
EF
FD
D6
1C
13
DF
C2
3F
FB
ED
1D
23
10
18
EE
CE
FE
DE
1A
E0
E8
F0
06
27
E5
FE
33
E4
2C
D1
1A
2E
FF
21
10
EE
E6
2E
01
F8
E6
C1
04
1F
DE
14
24
27
F2
F6
DD
15
F0
E4
09
09
F8
29
ED
2A
FC
D0
E9
02
F0
1B
F8
F2
17
26
0E
ED
06
EB
31
1C
06
0F
E1
F3
F6
1C
2D
35
2D
E9
09
14
DD
13
EC
0D
10
1D
21
CD
0A
1E
0C
DC
F4
0F
11
0C
02
2F
28
06
D7
DD
F4
12
07
13
D7
24
2D
33
FC
23
E4
41
10
F7
E1
F5
D6
10
29
07
F1
D8
FF
F1
EC
04
21
F6
FB
E3
07
1F
D8
03
FE
0D
CC
DF
DE
E7
EA
D8
E9
1B
12
FE
28
05
C7
EF
02
0A
E4
F4
DD
0B
E1
FC
E2
3C
14
05
EB
F1
27
30
CF
F3
16
1B
0B
E8
FB
0B
EF
FE
1D
DB
CD
14
E1
DC
F9
19
F4
16
E4
CD
07
D6
07
37
FC
1B
00
2D
F0
16
20
E2
10
2E
0E
27
E1
E7
21
D9
E5
08
F5
1E
0A
04
F4
F1
E8
16
1A
F9
CA
2D
13
08
DC
D6
E5
25
EA
E5
31
F4
F5
EF
F2
23
09
27
14
DE
07
36
E9
E8
1A
36
F5
07
25
D6
F5
24
04
1D
D9
0E
0C
D3
1F
D8
FD
13
1B
EF
DC
12
EB
15
FB
1C
D9
0E
F2
10
2A
ED
FC
10
3F
DD
3F
3C
EE
1F
05
FF
23
F5
EB
FF
2A
E1
D5
15
0B
E4
E8
04
FD
ED
F4
D9
F9
1E
FE
ED
04
16
32
F3
FB
2D
18
1F
09
3A
53
1C
04
03
13
2D
30
1D
F9
1B
1D
04
1C
0A
F8
13
01
E7
01
E7
19
17
03
11
1E
E1
F8
EA
1E
07
27
D0
06
1B
15
FB
E6
D8
24
EA
FF
EF
39
E3
DE
37
2E
4E
3C
DA
E7
4A
F9
E2
12
EB
00
39
22
FC
D5
1B
DF
1F
34
E7
FD
2A
DF
0A
21
07
FA
42
0E
1D
F5
0A
E7
1F
1F
FC
28
17
EB
19
31
1F
F3
E7
FE
FC
00
E1
1E
42
40
0F
02
ED
DA
18
E8
11
F5
FD
11
25
13
0C
EC
FB
FA
F8
0A
F6
2D
E3
10
19
2D
E9
26
DC
13
D0
22
1D
E5
E3
1F
1E
CD
DB
CD
2E
0C
FC
F1
ED
06
2F
37
28
09
E9
06
FE
D3
00
0B
06
D9
11
16
15
0A
E3
28
0C
EC
04
DF
41
D6
EC
08
2A
E3
4B
3A
DE
2C
E8
E1
37
05
E8
28
18
C8
1F
FC
1C
26
3F
22
2A
E7
0D
F9
41
F6
DA
F0
DA
BA
04
16
10
E3
DC
16
1C
EE
1C
13
F8
EC
DD
D7
1C
CD
F4
12
E6
14
EB
39
2E
13
17
14
F7
FC
0E
2C
07
FE
27
CF
F6
34
19
EF
D8
04
DE
23
00
EA
F4
33
F9
CA
EB
21
EF
ED
07
2C
15
1B
ED
10
FC
E2
0B
18
E1
E3
ED
E9
FA
F8
F3
D9
0E
03
FB
DD
4A
F4
27
EF
F4
F1
E0
F6
06
23
20
20
E0
00
F9
00
0B
0A
29
FC
F4
AF
29
F0
E6
FF
DF
DF
ED
E2
11
06
F6
05
24
E1
1E
10
20
EF
15
DE
B5
E3
F8
E6
EA
26
25
19
ED
0D
0D
FF
03
F2
04
1D
FD
0F
DA
1E
FE
2D
E8
ED
26
33
0E
1D
F1
D9
E5
19
10
0E
F5
E9
FC
1F
D2
F4
E5
EB
09
12
D2
EB
32
43
DD
BE
EC
F1
08
ED
1D
FB
F0
2A
0F
DA
08
F5
24
2E
FB
2E
00
21
CA
E1
21
FD
09
12
F3
EC
27
D6
D0
F1
28
1A
FA
32
04
F3
1A
FD
D6
F8
FE
0E
0C
2B
E8
0C
DF
18
C2
0A
C8
F2
CE
FC
CB
16
15
EF
E2
D7
16
D3
0E
F9
DD
D8
A4
EF
02
22
C7
D2
24
F3
EB
EF
26
04
E8
2B
23
F3
CE
F1
06
F9
C9
1E
0D
36
EC
15
09
DC
06
26
0E
E8
2A
E8
29
F8
EE
02
01
0D
EF
18
11
00
1F
09
39
EF
44
02
F1
C5
F5
EF
1A
09
35
0D
1D
0E
21
1F
17
D4
11
F6
0D
FD
26
E1
37
1B
31
1A
EA
2B
FE
D3
F2
D9
FA
EE
D8
14
08
EE
FE
18
02
20
28
D5
25
D7
FC
EF
F4
DE
05
16
ED
E8
EA
E9
D9
E0
2A
D4
FF
09
DB
FB
FA
E9
D7
18
E7
FF
18
20
01
E8
21
D7
03
FE
EB
11
D6
FA
07
12
D7
FF
00
E2
2D
19
DB
DD
E2
DB
F9
13
FB
12
2C
ED
EC
07
DF
D6
1D
E7
DB
F3
D3
D6
1A
12
FE
29
29
12
F7
F3
DA
F7
22
23
17
E9
F9
F4
E3
E5
14
E9
05
2B
F0
DE
08
1C
E3
0D
E0
F2
0A
CB
1A
1A
28
27
E6
12
2C
2F
05
14
E2
0A
F7
F9
05
1B
F7
EE
35
F4
E5
FD
20
09
02
E7
29
E8
EE
00
21
08
EE
E8
07
03
1D
0D
24
0C
E2
EA
01
0F
E5
E6
08
15
EF
32
2E
09
0A
05
2B
16
0B
DC
29
1E
1B
EA
FC
0C
FC
34
EC
2F
11
12
05
10
E9
19
E6
10
E2
01
F5
D5
0E
EA
0C
F4
07
CB
24
09
38
04
EF
1D
E6
F3
EA
D7
E3
E2
2E
2D
E8
1A
D7
2A
06
16
F8
0A
17
16
25
15
F1
DF
1E
2C
FD
E1
ED
0C
08
07
01
05
E9
2C
EE
E5
22
F3
1A
DB
0C
FB
FB
0C
29
15
EF
D6
E6
2B
2B
2F
06
12
20
29
FF
F8
03
2B
F2
16
01
EB
19
DF
DE
E8
09
1F
E8
E4
2B
FB
DD
E5
FF
32
16
F1
29
28
07
0E
21
1F
22
03
24
D4
27
26
F2
30
F4
F8
08
0E
EC
D4
D8
04
20
FC
20
22
17
E9
37
EA
18
07
DC
E6
30
F0
EF
27
3D
2B
25
1F
04
F3
24
28
F9
ED
FB
08
0B
14
00
E8
28
E9
32
1B
E0
2C
FD
2C
E5
14
FE
1E
15
1C
19
17
13
E9
10
DF
2B
CE
F4
F4
D7
03
F6
F4
D2
2B
08
22
27
10
F7
1D
F1
DC
06
F8
E6
D5
F0
F8
FA
39
EB
0A
D7
E0
DD
D1
04
23
3F
20
22
2E
2B
03
40
DB
FA
12
F3
EE
DA
2F
0F
F0
FF
28
E1
D6
E8
1D
49
EE
02
19
1E
FF
08
1F
ED
2C
DB
2B
1D
16
2B
FD
20
F3
0F
0F
CF
03
FD
0E
1A
0D
FA
15
FE
04
1B
03
11
16
DA
C0
22
D6
1B
FD
DE
E8
EC
1C
D7
F0
E1
09
C8
FC
CB
0A
D6
E0
25
17
ED
21
D7
22
FA
DD
00
D6
F9
EE
E7
06
36
21
11
22
18
14
25
FD
26
F6
10
DC
3F
04
ED
19
F9
DF
F4
F5
15
F1
EA
D6
E4
03
E5
25
09
28
1D
E9
14
07
08
02
F6
DC
2F
17
E9
33
26
0E
E7
1F
D8
07
0D
21
F6
FC
02
CF
F9
16
03
0B
21
04
2B
EB
03
2E
2E
E4
1E
1F
29
26
F3
25
24
FE
00
D4
1E
01
1B
F4
FF
D4
23
C4
CD
18
1E
C1
10
2C
25
00
CD
0F
E6
16
F4
01
00
21
2E
D4
07
1A
D9
E6
16
FE
19
24
E1
18
FB
1F
1C
CE
25
DC
00
F5
E0
28
CF
14
CF
EF
05
10
05
1B
DE
0F
E9
DC
EF
05
03
29
E0
16
16
D3
1E
1C
D9
21
DB
D8
DD
FE
E5
C3
DC
11
16
24
DB
06
FF
F7
11
D4
FA
E7
FF
04
EA
0B
07
F1
19
29
F9
E3
FB
D2
1C
23
27
FA
FA
F3
EA
18
F8
CF
FB
F7
EF
E1
D2
1C
21
D5
09
29
15
14
D5
DF
28
12
06
EA
DC
1A
05
13
14
28
F9
E5
F1
F1
0B
F0
EC
EC
FC
D4
1F
08
EB
F3
0C
D1
D6
1B
D6
E4
15
1B
F6
23
E8
DB
DE
E2
0C
D6
02
21
ED
1E
CE
1C
14
DB
D7
EE
17
1A
D0
13
2A
03
E1
F1
CA
29
EE
2A
E6
E5
04
14
E4
10
E3
00
22
CB
1C
EE
1A
F4
FB
FB
D6
CD
D6
F3
1F
FB
04
12
D3
DE
11
F8
DD
29
E1
E4
F3
FB
FD
15
D9
05
E3
F1
0D
28
05
05
0B
D2
17
FF
12
E5
EF
F2
CE
14
FF
F7
06
E8
F2
15
EB
0A
05
21
23
E3
DA
D3
EA
02
F8
07
E4
C6
15
FB
D6
DD
0D
F9
EA
03
CC
15
06
EE
E6
E4
20
D6
0E
ED
E1
1F
F4
EB
2D
0C
DC
F2
FE
EF
18
DB
D9
E4
E4
14
E8
03
2B
E1
1D
EC
05
E2
25
1D
DE
24
04
F6
DC
F6
19
00
13
0E
FD
11
F3
D5
DD
D3
F1
20
1F
1E
E3
07
D9
23
FC
EB
0D
25
EB
21
24
C8
D9
D9
DE
19
04
ED
1A
03
16
D8
D1
1B
FD
EF
22
07
F4
12
E0
D6
D7
E8
13
02
DD
13
21
0B
21
09
1B
08
16
D2
07
03
12
DE
E3
07
CE
F9
04
F6
F6
EF
1A
0E
EC
1F
03
F6
DF
D2
E7
FD
F2
DE
EE
DF
EF
FB
25
E1
E4
FC
23
08
EF
ED
EE
FA
1A
21
1E
29
19
EA
00
15
01
F1
07
1F
13
DA
D7
2B
E4
0F
E0
0A
E1
21
F5
E1
0F
FB
EA
EC
FF
18
F3
EC
DB
CB
29
CB
ED
FD
E2
F3
0D
11
C7
CD
EA
F3
FF
E9
D8
C4
E3
F8
FD
F7
1E
FF
EA
03
FE
11
DC
CC
F4
F7
03
DD
D8
14
28
F0
E6
17
D9
E0
0E
E4
D4
27
1D
DC
26
F5
11
31
E8
DA
03
06
D8
F9
E9
15
0D
D9
DC
2A
1D
DA
F5
E3
CE
F4
F4
F3
F5
00
07
2A
09
04
27
08
E9
2B
DD
F4
26
27
FF
07
0B
11
F9
E7
1C
DC
DE
04
DE
EE
E3
EA
E6
29
09
12
E8
21
0E
0C
E8
1E
06
EC
F1
ED
F1
DC
27
1E
1F
11
06
FC
16
E4
C6
E0
03
D5
F3
1C
CE
EB
EB
F1
E2
07
0E
01
EE
32
04
0F
23
D9
E6
E4
E5
FC
0F
00
DC
EA
17
05
D9
0A
EC
19
EE
03
E7
28
2C
29
1A
29
E0
E9
10
04
FE
2E
14
E8
02
15
00
04
30
27
08
DA
EF
F2
15
1C
D7
09
EA
16
2D
21
1D
07
26
09
01
E3
25
DF
02
E7
E4
08
13
12
FE
FB
06
03
EB
F9
DD
D7
F9
04
18
F6
E6
DC
E3
08
E4
E6
13
EE
E4
24
10
F6
F3
17
21
ED
FA
01
1A
F4
00
E4
E5
E6
04
FB
E0
03
06
DB
E2
01
F1
FA
DC
05
0C
28
F9
F0
02
0C
08
13
1D
0E
20
13
E6
0C
EE
30
18
28
2E
FD
FA
00
F7
E9
26
D8
2E
F1
D6
08
FF
E1
E8
D7
1F
24
26
02
1D
0F
E0
E6
D4
2B
19
25
EF
F5
22
DD
FE
EC
1F
1C
17
F7
0E
E8
18
D7
0B
DA
13
23
FF
17
EC
2B
DE
2A
0A
09
27
02
D6
13
16
EC
11
16
DF
11
ED
D7
03
E8
19
FF
27
E6
F7
EC
F7
E0
FD
07
13
24
07
2C
12
1C
FC
23
05
E5
FC
14
24
04
F9
E5
F9
FE
EB
D1
20
16
ED
16
29
17
0D
0D
E5
DA
2C
17
E9
0A
D9
2D
2F
EC
00
F3
ED
0A
31
E0
DE
12
E2
2B
19
1D
08
E6
21
0C
F6
EF
23
DB
03
F5
F8
26
D7
0E
EA
E0
E2
EC
09
EF
D3
2B
2B
0D
2E
D6
E2
F4
28
F3
22
D4
0B
E0
E3
27
1A
00
E8
DD
15
0E
D9
0A
03
25
05
1E
1A
E9
F3
E4
11
2E
27
1E
D8
ED
E3
F4
01
F9
E9
2D
E7
1E
ED
19
F1
FC
E2
06
ED
26
E6
F6
22
0E
F4
28
E5
E0
13
03
09
DC
F8
F0
F2
F0
EA
2B
FA
EA
06
2A
F6
FA
E9
1F
DD
09
D9
F2
0B
2F
1F
16
E0
E6
1D
14
00
1A
E6
E7
04
1E
09
10
17
24
24
E2
14
D9
19
01
DD
2E
EF
22
02
19
E3
D6
0C
1C
E6
13
FA
0D
16
17
F2
18
05
EE
09
EA
2C
1C
14
E9
0A
F9
2A
01
D8
F1
E8
04
E9
E7
0A
21
DC
0B
0C
E4
DF
EF
EB
DD
E6
E2
E2
F9
14
D5
E9
26
D1
11
F3
FD
D1
1B
DB
DC
F2
D3
F6
F7
D7
E9
F2
D5
17
DD
23
DA
FD
24
DA
08
EA
EA
10
FF
07
E3
0E
EC
2E
1E
ED
E2
FA
1A
E3
FD
00
E8
28
28
DE
1D
D6
26
08
04
F3
2B
07
E0
E7
DF
00
27
EC
ED
ED
FD
28
F0
02
15
F4
02
E6
EF
05
29
E8
FB
0E
1D
1B
D2
0E
13
FC
FE
16
0A
DB
0B
22
DD
FA
E0
D6
E1
17
D9
EA
05
E8
F6
27
ED
F1
16
1A
2E
ED
02
F2
D8
DA
EA
22
2C
21
25
FF
EF
0D
D1
FF
E0
FC
02
16
20
E7
21
FB
19
0D
0D
27
DF
F8
F7
D7
18
E3
D5
CC
0B
F0
F9
FE
E1
F0
07
07
D9
12
E6
01
D8
DE
FD
10
12
F8
EE
2B
09
20
20
1C
22
05
00
15
1F
2A
F8
0A
E3
DD
F4
20
12
D9
C3
D6
0F
1C
DD
01
F8
17
EF
D3
C5
E0
2F
FB
17
D5
03
CA
ED
14
F7
0A
09
F5
D5
F8
E7
D0
18
08
E7
2A
04
E3
F7
C8
ED
CD
13
05
10
0E
D6
24
F1
F9
CB
EB
13
E8
EA
16
05
FC
1F
D4
1C
CC
D1
1D
26
EE
DC
00
18
DF
1F
FC
0D
14
E0
05
F4
D2
FD
40
05
2B
E7
0A
22
D9
F4
27
09
EB
E7
E4
00
14
05
DB
40
2B
00
21
F2
13
D1
DF
1C
08
02
21
EE
2D
E4
F3
EC
DC
D8
DC
13
E9
22
F6
0D
3C
DB
EE
04
02
20
1A
21
2C
1F
D2
27
FF
24
DF
CF
E7
E3
E8
CE
FD
E2
3A
01
19
1F
FC
05
D6
D6
14
0A
F0
E9
12
08
1B
EE
1D
22
24
E3
FA
1A
1A
29
09
F9
0C
DC
12
29
FE
24
50
EC
0C
3E
E0
FE
32
00
EC
40
28
18
D3
38
20
E6
DE
35
C2
F1
DD
26
14
FB
20
09
DA
0F
D9
F8
09
0E
09
21
EF
FE
D9
31
D2
0E
17
DB
FF
1E
25
2B
FC
1E
40
00
EB
F0
BE
E8
03
E9
D6
13
FD
02
13
EE
1F
D0
2D
EB
F0
21
CF
E0
D8
FE
DB
25
12
07
18
0F
E6
19
0D
19
0E
DC
22
0D
FB
08
16
3E
F2
D6
D5
FA
D1
CB
08
DD
FF
EB
34
E6
09
11
10
2D
ED
E7
CB
EB
FB
09
FE
2D
20
E9
E6
07
D8
03
F0
22
FF
FD
ED
29
FB
25
FE
DF
1B
C9
06
1E
33
D5
0F
D5
04
09
F0
D5
2B
EB
1B
1B
22
30
E3
DF
22
E1
C3
C3
E5
1D
21
DC
F5
DF
DC
FA
E9
DC
20
09
12
1F
FE
09
02
04
02
D1
EF
C3
F2
FA
23
C9
0A
F7
EC
E3
D2
FF
E0
21
0B
21
EB
0A
02
F0
D2
F7
07
DE
00
EB
20
F6
00
E1
0A
F8
21
CC
04
FE
2C
1A
E6
F2
03
DD
1B
F6
D9
24
F1
22
FC
10
1F
1B
E4
E8
ED
EA
FC
D9
14
29
EC
06
FA
FC
0C
11
25
E5
D5
E1
16
FF
DF
FC
E1
FB
0E
07
F3
D3
FA
11
DE
34
BE
C6
1B
00
25
F8
4F
1F
EE
15
D7
39
01
FA
E7
4F
02
DF
2E
19
25
EB
F5
13
1A
08
FD
1A
DA
13
12
E6
09
FB
0B
F8
F5
D6
DF
EE
15
F0
2B
0A
D2
0F
FF
23
04
F5
EE
DD
22
1B
1F
D2
26
E8
1B
19
03
22
02
14
0D
D0
F5
D0
26
FF
F0
22
01
02
CC
F8
19
F9
01
16
DD
15
FF
14
0B
0B
DC
BB
CA
C4
24
1B
00
DD
2D
F6
05
E1
05
25
DE
12
31
27
E7
0B
3A
2E
E7
34
23
46
26
C8
04
18
E8
26
FB
EF
DA
05
22
17
10
FC
CD
01
F0
FB
3B
18
00
0D
17
D7
D3
2D
05
0F
13
28
D1
13
F3
EA
02
F5
02
2F
F0
EC
EC
24
F8
E5
0F
F1
D9
00
11
F7
EE
20
F0
22
F9
D9
0B
1A
E8
D1
FD
F5
31
E4
D9
FE
19
2B
2C
32
E8
0D
08
ED
D4
F2
F5
DD
ED
DD
28
0B
E7
08
DB
30
18
CE
21
1B
F1
0B
DE
D7
1B
05
03
0C
0D
0F
D8
DB
2A
2B
F1
1A
2B
DF
20
D3
46
36
0C
00
D5
F4
DC
F8
E8
03
2A
25
11
0C
F4
10
E6
22
E9
0F
E9
18
03
DF
1B
DD
FD
D8
E6
24
28
0B
EE
13
EC
04
1A
F7
24
17
E1
24
1B
20
C2
2A
01
FF
F8
EB
E6
20
EF
CF
DA
FA
16
E5
F8
07
CA
E8
DB
15
E9
26
00
E1
C7
C8
DB
1E
E1
04
12
C7
03
06
1F
04
15
2C
D0
0B
13
F0
2F
DE
D8
2A
E0
D5
0C
23
E6
16
D3
E2
09
20
30
F6
27
28
E6
FD
E4
22
FA
F3
FE
18
12
1E
03
E0
F6
29
E8
EE
E0
13
CB
14
08
EA
FC
20
16
1F
E6
E8
EF
ED
08
F1
03
DF
F2
FD
11
21
DB
D3
12
BB
07
F2
06
ED
0D
37
15
34
E7
25
D7
E9
DD
ED
04
17
FC
DB
30
F0
D8
14
15
0A
FF
29
E5
00
FE
D2
45
04
2A
F3
DF
EA
07
DE
D5
1C
F9
0F
D6
E2
25
16
E5
22
11
F6
32
15
11
E0
FA
21
10
13
ED
0D
04
E4
26
FC
F7
FB
13
04
2A
1E
FA
EF
DD
E2
F1
1B
D9
0C
FE
29
0C
04
ED
14
13
D1
C8
E0
AA
1A
D9
DE
FB
FC
DE
F4
0C
D2
2F
17
DA
01
0D
0F
23
EB
C8
E6
ED
1A
1F
03
D8
F2
0F
10
0B
E4
0D
01
0F
0D
ED
FE
32
EC
ED
EC
2D
EE
02
E6
15
26
E1
F5
F3
E2
01
D4
E4
28
DC
08
1B
03
C8
F2
F7
16
19
07
17
D2
3A
1A
10
2F
EC
1D
EC
3F
F0
FD
04
E4
FA
E3
F2
DA
00
D5
F8
18
11
F8
13
08
14
15
12
17
2F
DD
ED
25
0A
DC
11
13
EB
FD
EE
02
29
E8
25
FA
0E
33
F0
FB
ED
25
0B
29
E4
E4
1B
15
D8
DF
11
16
F0
11
04
00
DC
24
2F
FE
D1
E7
FB
01
0F
E3
1B
D9
2F
FB
F7
FC
EB
D9
15
20
C3
25
D9
18
0D
22
EB
0C
10
