51
5C
2E
34
BB
23
3E
BD
0F
53
CC
CC
3B
36
D5
D7
DE
4F
35
CF
A6
4B
4B
21
14
B6
1F
11
CB
CA
E6
59
E9
2A
0C
1F
C4
0E
B3
F2
C3
FE
EE
0D
D8
05
BD
49
5C
12
B5
BA
A0
B0
8C
3A
F8
E0
0C
DE
86
41
99
0E
13
B0
62
56
BF
C5
49
4A
C8
E5
C4
47
2F
62
C6
5E
E5
BC
9D
5E
29
BA
0F
8C
ED
FB
B8
C7
4F
CC
DA
B4
A6
DA
D6
1C
B0
16
5D
1A
C5
CE
35
12
D4
49
EA
09
E9
06
DF
E8
FB
4C
FC
2F
D9
1D
B4
38
E5
AF
06
C7
00
17
F5
36
FF
B9
21
26
AB
64
F0
44
E0
41
1A
B5
A0
0E
AA
62
E0
FC
30
23
B7
45
14
B6
48
BD
43
C3
FF
3A
4B
37
3D
41
AB
6A
2A
5C
03
BE
C7
EF
4A
AC
A0
C5
1E
F6
EB
20
B4
E2
56
4B
DF
EF
D9
F4
B7
AD
E5
2B
9F
F6
10
59
0D
03
55
ED
ED
95
16
2E
58
26
07
C4
2B
50
2D
3B
46
07
BE
00
0B
2D
B4
4F
FC
02
E1
D3
31
2B
39
A6
D8
AF
C2
B0
59
63
DE
E1
3C
34
DD
EB
DA
DB
39
15
38
C2
53
A2
49
CC
53
FE
FB
1C
5A
F0
2B
5C
A5
A2
DC
15
34
18
F5
B7
BA
AA
35
F1
3C
BD
27
BA
02
FA
C3
15
01
A5
03
2B
E3
4A
CA
5C
E2
F3
25
E1
28
33
29
0A
CC
C5
11
C6
19
BF
DD
CB
66
FD
11
2D
A9
43
25
F0
BB
35
13
C9
34
02
9E
3B
0A
9A
59
49
FD
F4
04
DE
D5
36
66
08
FE
6D
A1
40
DF
46
43
04
ED
EA
BF
39
5D
22
0B
44
99
36
1D
13
DA
5C
CD
B8
AE
17
39
CF
27
F6
DE
DD
F5
1A
2D
27
29
38
F8
B5
3B
E4
EF
4D
EA
3F
BB
54
A7
02
B8
DB
15
F7
A7
C4
B9
9C
62
37
F5
CD
00
3C
FF
30
E7
4F
2D
C7
F5
58
55
4B
E4
DC
A0
22
CE
46
D4
B3
39
3E
33
35
10
CC
AF
61
CD
B9
50
A6
D0
2D
15
D6
08
AE
96
DD
46
F9
BA
63
2E
20
09
21
3B
23
61
22
C8
56
13
F9
2B
B5
0D
0D
4D
B5
CE
4A
DC
EF
22
17
56
2D
49
4A
43
20
5C
23
40
0C
FF
DC
0F
16
30
F3
FA
0F
24
E3
D1
EF
38
2D
BB
F1
09
D8
01
0A
BC
AF
E6
5C
D0
0D
3C
B3
6C
28
3E
A0
15
35
17
BB
F8
03
EE
44
AE
AE
05
1F
2F
E8
57
FC
18
46
42
20
CC
E1
F5
AB
CE
E1
26
E9
58
E5
6F
2C
B0
54
F9
5B
B7
07
CB
F9
18
A9
05
5E
28
CF
81
F0
F3
63
F9
CB
1B
1E
25
4F
32
A2
0A
1A
BC
CE
4C
E9
09
B9
26
2C
DC
BD
A0
D2
36
0B
AF
28
DB
DF
B3
5C
36
E7
F6
EA
42
51
D7
A4
B6
F7
E5
58
65
20
B7
13
3F
43
59
9D
5A
0E
34
1E
1D
B5
B7
2E
E5
C8
C6
F7
33
DB
A7
D7
11
26
0A
04
09
47
37
10
05
FD
12
11
12
C7
F7
5E
FB
CB
E9
14
0D
3C
A5
CF
F7
3B
D8
33
A4
33
BE
C0
4D
55
4D
44
FB
F6
29
B4
28
65
1C
5D
C7
AF
B9
BD
1F
D1
D1
AF
26
24
45
3A
ED
68
0A
DA
5D
E5
43
DE
B5
DB
B5
99
C7
40
DF
AB
EC
3D
D2
45
51
B8
FC
F0
01
AE
19
DF
2E
EB
09
49
FE
E1
41
1C
E3
EE
E4
BC
12
E1
ED
03
B2
1A
A2
A9
B0
D2
4A
E0
E1
C5
A3
EA
D3
62
34
B5
05
0A
A4
FB
A7
30
5C
A1
DC
07
E0
B1
59
CA
1E
D0
F5
42
FB
30
33
E3
0C
D0
F9
D6
BD
CB
F2
3E
C2
A0
19
0E
5F
5D
41
F6
ED
BA
40
13
0F
11
50
27
DA
BF
C9
06
23
62
FB
4F
F6
12
B5
F0
E6
B4
8B
A6
E4
02
00
38
04
37
12
D3
E4
1F
F9
E1
3A
68
07
C8
C0
3C
00
38
D5
A0
54
4A
C9
A6
1A
12
22
5B
E5
E2
43
13
38
22
A0
A9
06
EB
1C
A6

