782
68E
7D1
6C5
032
7D0
04F
7FC
7EF
7AC
796
776
7A5
656
77F
70A
798
065
094
053
160
7EE
6F2
70B
78C
0BE
798
775
788
02D
7EE
7C7
786
0CB
7D9
7A2
000
044
756
6DA
7C3
650
65C
65F
5F5
763
725
7C4
760
79F
02B
709
083
08C
7EF
6F3
7DD
091
118
62B
676
6C6
69A
793
143
7DD
07F
740
0BE
071
7CC
636
096
70C
7AB
75B
76B
058
087
78D
058
7BB
61C
6D7

