43
42
41
F4
3B
FD
D2
D1
2D
27
C8
1B
CC
F6
B9
36
0C
21
32
B4
5A
E4
49
19
2E
3A
1F
EA
DC
D2
29
57
EC
0C
02
44
D7
1E
BC
BA
C9
3F
D1
16
57
1D
F1
BE
4F
FE
D7
00
AD
F9
2A
2F
4C
22
15
36
D6
BB
BC
F0
01
1C
B3
FE
B7
C4
16
F3
DD
49
01
0A
37
B8
28
28
47
AA
3D
F4
1C
F6
BE
DA
54
06
28
0F
C8
23
2D
15
32
15
41
E4
5A
34
FB
E4
D0
CA
3E
4E
30
D5
3D
B3
06
3D
B7
FF
BB
55
B2
21
31
EA
2E
05
00
46
4D
02
49
C5
C0
E3
D9
CA
DB
DC
C6
A6
1A
19
BE
B4
0B
09
BB
1A
A8
F8
2E
21
19
04
C4
D4
0D
21
E6
30
F3
17
CE
37
B3
D0
29
1E
F6
ED
E2
28
01
40
DE
E5
C4
CE
F7
B3
A5
4D
26
19
3E
2B
BB
45
05
49
2D
D0
49
47
23
0B
09
F2
1E
3C
FA
09
29
BD
E6
2E
22
30
1C
C2
44
D9
1C
62
13
40
E3
CC
2A
A4
D6
C5
3A
F1
1E
29
2F
04
04
AE
50
EF
2D
14
DF
A6
B7
30
CC
B7
D4
3A
2D
BE
E9
4F
F9
DA
C8
3F
B3
A9
2C
C9
2C
44
03
30
32
55
9C
29
EE
ED
2D
DA
0C
34
DA
01
38
C9
06
CD
16
DE
36
48
BB
DD
AD
AA
FE
37
2E
F4
4A
31
D4
4A
49
15
EA
F7
47
AC
B3
C2
4E
0E
B6
F0
E4
15
0E
16
01
59
D7
0D
2E
0C
F2
3A
B7
D6
57
E2
10
50
CC
24
1D
22
DB
CC
E0
E4
F5
BE
C8
E2
E7
D6
F9
17
EF
A4
40
58
42
ED
3D
CD
D4
18
F9
B3
40
D4
22
D4
D2
B1
BD
D0
E7
BC
0B
1F
BB
F0
CA
BC
52
43
49
A9
BD
FD
35
B3
FE
CC
11
E0
C1
35
C8
C6
2B
AB
B8
0A
BB
27
BA
B1
F7
CB
3D
A7
FB
DF
BC
0B
BF
4E
D5
E0
D4
EF
23
29
D4
3B
C3
4A
EC
D0
4D
09
AC
F3
02
F7
C2
D3
DB
A5
C4
42
22
FE
D6
BE
1E
49
4A
29
2D
EC
47
D1
E9
10
C2
3E
AC
B6
4E
BD
E3
C1
FE
1B
D4
B0
52
D7
AB
AC
E4
1B
BA
13
29
B9
24
10
C4
42
B9
CF
DC
11
28
49
12
B0
FE
3D
17
0C
31
BA
2B
04
FC
B7
1D
45
B5
06
11
26
44
44
BA
BD
EC
E5
B9
25
4D
18
01
D5
27
3C
AF
49
1A
23
12
EC
0F
CE
DE
DD
50
CF
14
F1
3F
B0
D6
1C
15
E0
B9
C6
50
E7
BE
46
06
41
18
47
DB
DF
C2
3F
C6
23
FD
C4
28
4E
DC
D1
0D
43
AD
45
2C
3A
E6
3D
23
53
57
3C
38
3A
31
3B
BC
1A
58
4A
27
1C
BC
ED
CF
D7
4E
E4
BC
F5
1D
2F
19
F1
3C
2C
F1
56
1A
C3
4C
55
F5
42
34
52
41
E3
1B
25
0B
AC
F8
28
1D
1C
4F
50
0F
FF
05
C6
ED
13
B8
ED
0B
0D
B2
22
44
51
CA
32
F6
E1
15
FA
DA
C9
C9
A5
54
D5
10
43
50
E7
C2
2F
E4
2C
0A
E3
26
D7
1E
34
5B
46
3D
CF
5B
FF
B5
DE
F7
F1
B2
2E
0C
F7
DE
D9
4B
3A
F3
48
D0
13
20
02
D7
1E
B8
A3
E9
42
1B
FE
09
42
43
17
BB
18
C3
33
0B
41
B4
B8
50
51
3F
15
AD
2C
5A
D5
BE
0A
1E
B1
36
D4
03
F3
2F
FE
DC
FB
CC
34
20
00
BB
CB
13
12
3E
EB
CD
FB
46
CC
DC
3E
D8
AB
D5
FE
22
25
D7
D3
59
4F
EB
AB
F7
54
16
E8
B6
DD
E1
21
1A
20
0B
A7
EA
B2
CE
D5
AD
F4
C7
1E
09
F3
2D
FA
41
57
FE
AC
4B
BD
12
AC
FA
AB
C8
12
FE
1D
0D
2C
54
ED
CB
DE
09
B3
C0
EA
D5
18
33
EB
E6
44
BC
27
F6
5D
D2
45
16
11
40
04
2E
36
31
33
3B
1C
11
08
19
BA
BC
14
32
08
4F
22
04
25
D8
38
2F
AB
ED
A7
3B
D8
36
0F
DC
1B
CF
D2
C9
19
01
DE
02
F6
DA
B4
00
F8
4F
3E
C2
BD
0F
BB
49
33
59
BA
03
B2
42
EB
06
DA
BF
AC
C4
2F
BD
30
43
30
AE
50
17
1F
EA
23
C2
F7
B5
BF
1C
44
06
A8
F3
2F
34
E0
44
1D
B5
24
D3
24
D3
FB
F6
C4
55
A8
00
B5
3F
F9
EF
CF
19
46
0B
D6
56
43
FA
DC
D5
4A
0C
B6
CA
D7
21
48
CC
0A
D5
5D
26
38
EC
0A
F6
D4
38
E4
25
53
C3
1D
F9
B1
4A
21
04
41
3D
BC
19
26
BA
36
C3
27
33
A9
D1
CA
F8
EF
0B
B4
B3
24
E4
33
B5
E4
E0
5B
57
FE
2C
28
D8
47
21
0E
56
25
05
30
BC
A7
3C
31
E8
CC
D9
DE
B7
3C
E3
16
41
B6
5F
04
EE
AD
FD
F6
12
43
38
2B
D3
33
59
BC
43
48
39
1F
DB
13
35
DA
11
12
26
44
08
40
5A
E6
46
17
AD
B1
09
CE
CE
47
45
AB
F1
10
BE
DD
09
ED
EA
1D
0A
C1
EE
DC
24
FE
1D
17
41
B0
AB
60
F8
39
12
37
C3
E1
FB
EA
CB
BB
0B
C8
16
23
D7
3F
22
09
D2
FA
01
F8
D0
D7
A7
1C
BB
4D
FE
50
AA
E3
2A
B5
15
4B
5A
FF
B4
FA
29
B5
E8
E8
EA
3A
AD
34
23
B4
EF
DD
DF
24
0D
05
30
44
1D
55
09
1A
30
48
B5
1D
C9
B4
47
BC
DD
E5
55
E4
30
CF
B9
22
F1
DC
2C
05
42
A6
23
24
CB
F8
FA
E5
04
2C
21
E0
C0
B1
DF
56
53
14
53
45
AA
AE
25
E1
46
D8
BB
D1
22
F9
1F
DD
42
3D
0C
40
AF
4F
32
B9
B5
E7
BE
C8
47
0A
A9
06
C7
A6
FF
28
ED
D3
EB
F2
4D
F3
E0
26
F4
F3
37
D9
F6
51
52
0E
46
3D
1A
D1
B6
51
1E
45
FF
B3
4A
4E
F6
C7
C3
4E
D7
38
C7
22
55
24
F4
0B
33
23
F6
C4
0C
F9
22
D1
2B
33
35
E5
D8
07
BD
F0
D8
D7
D6
B5
32
B3
B7
00
BF
54
D6
B4
18
03
18
56
44
EA
53
DE
15
40
5C
19
D9
3C
20
06
F6
DF
F1
E6
D2
F9
56
9D
E2
E6
2C
54
AD
DA
C7
DD
16
DF
E6
35
49
38
DA
E2
D7
26
F1
B5
DC
2B
0A
FD
E9
12
42
17
FA
0C
5B
C1
1A
BD
22
2B
E4
A8
D2
0D
61
EF
F4
C3
55
AD
AC
F4
16
F3
BB
4E
DF
DA
F4
B4
BC
4B
46
F9
FE
C5
DD
A4
33
FA
35
FA
A1
32
49
B9
D2
15
D6
F8
06
D0
17
AC
1D
DE
0E
5E
48
AE
C5
0C
E6
CA
E9
3C
4D
DC
9E
B1
D8
FC
B2
A8
0E
19
38
45
14
C4
EF
0B
3C
AC
11
0E
1A
E8
09
9D
C9
F8
3E
BA
A8
3C
B9
02
E8
48
B4
4B
DD
25
13
1E
05
B4
B5
F5
C6
00
BD
F6
DB
E3
D3
3F
D8
2B
5D
00
D0
C3
95
DB
B4
EF
28
41
C8
12
49
5A
CF
E4
AF
F6
13
2F
10
F4
FC
0D
D1
22
15
0A
F9
42
A7
D5
AF
02
AF
2D
CF
FA
17
BE
4A
47
AD
E1
2F
4F
27
CA
F0
01
D6
3E
F5
C3
F9
20
DE
3E
AE
54
3B
00
1D
06
4E
C2
D8
45
B5
FF
C5
4C
55
31
17
1F
C4
A2
C7
C3
ED
05
10
B4
4A
17
CE
EA
EE
AE
10
55
D0
D7
AB
E8
DA
2D
DA
0E
53
98
AF
43
C9
F0
EB
51
4B
FB
CF
EC
4D
1E
19
0E
35
21
09
27
C0
D3
FB
D3
C7
D5
A3
10
2F
02
42
CA
38
C5
A9
DF
F3
07
D2
E5
D9
E9
1B
DB
F4
2A
D1
E6
1D
29
DA
37
EE
35
AE
09
E4
28
B2
32
2A
41
E1
29
EF
1B
50
FD
0B
76
11
D2
15
E1
F1
EE
DA
0F
2F
DA
40
AB
DE
BB
C3
BE
C0
42
3A
CA
B1
A5
C3
F5
33
4D
1A
49
E8
51
2A
2E
30
E7
11
E6
4B
CA
B8
4D
3A
CC
25
18
3F
F9
17
F6
E6
11
D6
47
B4
EB
3F
B5
E8
37
D0
49
E1
E6
E1
39
10
0F
27
4F
FB
E1
26
4E
D0
08
C7
A9
FF
04
F3
F5
C9
46
3A
E7
09
C5
53
18
FF
29
3C
F2
4B
DD
44
57
02
F6
D5
3F
A6
1C
CC
B9
A8
B9
D4
6F
EC
F5
34
4E
1B
FA
55
DD
BA
15
55
2C
B7
0A
3F
18
23
33
0A
04
B3
3E
DD
0A
BD
14
F0
33
41
38
2A
31
00
27
11
FA
EE
E3
C0
46
10
53
2C
42
E5
AD
2A
C7
C2
51
4A
53
FE
F2
FB
D3
29
49
16
43
D0
F3
3F
A8
C6
53
4E
FC
51
46
0C
C5
4A
03
FB
4E
BE
B2
F2
C1
16
07
EE
31
FB
CE
C6
BE
F9
AC
0B
AC
D9
08
4D
E6
98
1D
E6
A1
C8
4A
26
CE
26
16
BB
E4
42
C3
21
02
3C
3C
C4
53
3C
36
BC
B9
D8
18
EE
B3
F1
05
41
D7
D3
D3
33
00
20
23
14
EB
00
23
27
FF
19
B8
BC
05
12
DE
E1
4C
BF
3D
35
39
A7
BA
D2
31
D5
3D
FA
31
17
BF
3D
FC
B0
2F
30
B2
AA
B5
C8
1D
2C
CE
3B
0B
E6
30
E8
20
C3
EC
43
A2
34
37
B6
ED
AA
BD
B3
F9
4D
2E
B2
CB
CA
4F
B8
23
CD
A1
05
B3
18
3F
1E
33
04
4E
1E
3E
55
FD
24
AC
E7
51
C8
E3
4C
23
AE
F1
38
C3
E0
2A
A6
FB
0C
04
BA
08
03
B2
C2
B3
4F
D0
4C
33
B7
50
C1
44
3A
F9
E4
4A
2C
44
04
37
3A
01
F9
06
1C
06
16
E3
5D
39
00
38
42
AC
20
CB
4A
32
43
0D
CE
E8
05
C4
12
47
11
4A
62
E6
06
41
01
AE
44
DE
BB
49
36
B4
01
32
D3
0A
32
A4
AA
F4
CC
B5
3E
1D
18
3E
3F
D5
B2
C1
E4
25
BB
2B
FE
BF
D5
E2
CE
2B
5B
53
C3
C1
D9
3A
02
24
58
E6
EB
F4
B7
19
52
24
49
AD
EC
B6
B2
B0
2D
F0
04
C1
E5
B9
0C
56
37
D0
FC
B6
34
A5
12
28
05
C6
E3
2E
FA
50
27
34
2D
F1
30
FF
3E
BB
AB
F9
F2
C2
BF
ED
0E
3A
C3
C9
1F
BE
32
51
DE
EC
20
EF
2D
C7
0F
AB
F9
2F
CA
29
F5
E0
EC
2A
E9
F3
35
EB
C2
21
50
CA
DA
31
E6
29
D1
C2
4A
BF
39
0A
3C
05
4D
B8
A2
3A
0B
26
EA
3D
D0
49
15
1C
24
F4
4C
42
E4
E7
CD
FC
AE
DB
FE
B8
52
DB
AE
DC
A5
17
51
D1
5C
16
98
2E
35
DB
1F
D8
E2
EC
41
1F
AA
FD
3A
03
53
0A
EB
23
20
46
C2
66
28
05
1A
F4
E5
4F
42
EF
51
5A
BD
C3
55
D6
09
00
F4
C4
51
D0
4E
29
B9
FE
2E
C9
C5
15
02
27
FB
B5
C9
E3
35
4D
BD
C1
E9
3A
05
16
21
C8
3D
24
33
ED
B6
27
C8
DE
3E
A6
BB
C4
5B
AF
DF
33
F9
27
AC
21
53
FA
FC
B6
38
B7
F1
36
E5
F0
F0
2F
23
C1
FC
A2
44
E1
EB
AF
06
36
AB
DA
AC
C6
42
39
D0
00
A0
0A
06
4E
5E
F7
30
21
E4
F0
10
52
DC
F8
FD
37
36
E5
DB
F1
EC
05
3D
02
20
AB
01
BE
F1
1C
14
A8
44
C4
C1
51
1A
AD
07
46
DD
2C
76
00
ED
E3
AE
BE
B4
B4
B9
1D
E4
55
FF
E8
E2
D1
34
5D
36
C6
C6
D7
C1
52
E0
07
4B
52
1A
25
CE
3E
F2
ED
E3
B5
03
F5
E1
59
FC
F7
C5
E8
C7
30
45
A8
2E
F8
28
0E
23
D8
14
D8
3F
18
0D
D7
E0
C3
E3
1D
29
40
46
09
0E
E3
17
B3
ED
55
37
AF
1E
43
ED
33
1F
F8
43
C9
B7
4B
0B
E7
FA
CD
DF
F5
33
B2
37
44
08
F8
2B
C4
AB
22
28
27
F9
BF
C1
CC
06
39
3D
E2
F8
F9
09
16
ED
C8
4D
5A
5C
42
D1
FE
03
58
11
FA
30
03
12
B0
50
CB
68
0A
EB
26
43
52
CC
49
B0
B3
28
34
1C
B6
04
F6
DF
B9
67
0F
47
0C
42
FB
46
E3
49
52
00
29
07
1E
41
E3
C9
24
3B
35
FE
DC
4F
BA
34
37
48
C7
39
16
B2
46
06
DA
3D
C9
D4
CD
11
17
51
E5
BC
F3
1F
30
00
C4
34
20
1B
E5
BA
E1
04
F8
E8
D3
2C
52
48
22
0F
1A
0F
DA
59
3E
B1
CF
CD
0C
DD
4A
BC
F0
2A
00
2D
21
00
A7
29
13
35
AC
AC
1F
B7
B7
36
43
D0
1A
BD
BB
47
49
C6
4D
40
A2
36
48
C6
4E
E6
C7
4A
4C
0A
EB
18
56
BF
C8
24
B8
13
B3
25
BF
4B
AF
FE
5C
D6
45
B7
FA
AD
1F
E5
46
E7
2A
17
0A
C2
FE
B6
9B
E0
2B
17
5B
29
C2
46
09
56
12
FD
B4
C8
C6
51
FA
15
F0
3F
4F
AD
F4
F2
ED
0C
F2
D3
4D
1B
46
C6
A8
C2
EA
F6
CF
45
E1
CA
3A
04
FA
E9
09
AF
4C
FE
3F
5A
42
10
33
19
2F
2B
A4
1D
34
E3
08
E3
67
2B
17
27
B7
FA
04
FE
00
E8
37
FA
14
0B
A7
D2
3A
BA
A7
10
2A
0B
4A
48
35
EA
D8
0C
AC
EC
10
AE
FE
39
B8
40
C5
E9
C9
A9
F6
17
FE
06
C7
24
2D
1F
C2
35
1E
33
25
B0
07
30
02
11
E2
FE
31
2A
CF
A7
13
4E
EA
3C
B8
18
16
F5
18
44
07
A2
15
E0
F4
1E
07
3F
25
0F
22
42
28
05
15
C2
CA
03
51
4D
F8
DA
3B
AB
E3
1F
F4
1C
2E
F8
C8
30
06
E7
24
E7
36
A7
A8
32
49
1C
17
D7
E6
0A
0C
E0
FD
43
3A
BE
3F
B2
18
F0
FC
B6
E8
48
45
D2
08
F3
18
0F
D2
1F
3F
D2
E1
E1
E2
01
50
2B
E5
EF
AE
C2
06
2B
2B
59
D1
1D
FE
26
2C
AA
DA
BE
D7
E3
D9
B9
30
BF
BC
51
B4
1A
07
BB
1E
FD
F9
1B
0A
40
C2
1D
C9
2B
B6
3D
D1
38
0F
E8
14
DF
CE
EC
2F
F2
30
08
FC
D7
B6
E0
DD
A9
09
2C
44
27
EF
B4
E3
B1
E5
51
F5
11
1C
E8
AF
46
00
0D
1B
D5
EF
08
AC
B0
FC
3D
DA
B6
10
F0
E0
20
5B
18
14
3E
59
29
3D
44
B0
44
A3
E8
C4
47
BA
26
BC
B9
C7
56
FA
E5
21
23
42
AA
DE
43
43
2F
F7
F2
EA
CA
E9
EB
DF
E3
FC
F7
BB
AA
00
4E
0C
C9
31
50
FF
B1
DD
DF
46
56
34
C3
C9
0D
F0
BE
BD
FE
2A
F2
16
B7
1A
0D
C3
DD
4B
CD
D6
28
EE
37
18
B6
E0
BE
0C
4B
3B
25
39
CB
E6
DC
09
CA
00
B3
48
1C
38
F7
CF
16
0D
57
52
FB
F2
54
3B
3A
02
1F
12
DE
1B
B4
FA
0D
1B
DC
F3
09
BB
BB
19
43
46
4A
F9
17
05
F6
D0
AF
B8
C1
CF
53
DE
C6
38
2A
61
F7
4F
A1
0E
E6
0C
06
32
23
43
E4
5D
08
D5
D5
14
AB
1D
33
CA
D1
2F
17
20
CC
1A
27
B0
3B
F5
1C
D0
C5
E3
E1
31
DF
41
43
CE
EC
39
41
2D
AE
0E
E5
D8
F0
D6
22
09
28
F4
48
D2
14
C9
17
0F
19
34
B1
F9
18
B9
DD
C3
D6
4C
F9
C9
BB
1A
31
19
BA
B8
E9
12
B3
A9
4D
DF
1D
48
31
34
17
2C
C8
EA
B9
25
B7
D1
F8
F3
D1
44
AF
D5
C3
1D
BF
16
C6
17
0D
A5
57
D4
32
18
04
3F
B5
D7
03
60
E7
27
BB
3B
23
09
BA
AD
D4
33
11
2F
C3
C8
3A
B5
42
1E
B9
33
D5
31
F0
B8
20
BD
45
B2
2B
0A
59
4B
17
1D
0D
21
46
0E
15
0B
DD
C3
B2
B3
2F
C1
C0
41
C3
25
D6
E1
DA
21
0C
0C
AE
EA
55
3A
5A
FA
06
5F
B5
0B
39
1F
26
46
BB
00
36
C3
32
20
F9
F7
06
D9
D9
3D
38
25
3B
EF
F7
DE
38
1C
B5
1F
E4
3E
1B
EF
A4
CC
FE
35
29
E4
B0
15
0F
B9
51
BB
C0
A9
FF
BC
27
B5
F3
11
A5
E3
F8
3A
48
1B
EB
A6
B6
BF
06
DD
85
2C
3D
24
B2
ED
3B
29
FD
37
02
55
14
FA
40
46
2D
48
0F
39
44
50
E5
03
BC
14
AA
1E
1D
DE
EB
C6
21
4F
D6
F7
48
0F
B2
C8
29
CC
AD
B4
C1
2D
04
D4
27
25
ED
0E
4D
44
EC
1B
D9
E4
2C
F7
AE
36
C8
CF
28
FF
D7
15
48
1C
EF
0B
B6
B5
B4
33
C9
28
11
15
0C
15
B3
1A
09
F9
BD
4B
37
C4
4B
58
E6
FC
AF
3F
1C
14
CF
1D
C2
E7
FA
AA
C9
AD
F2
16
02
E6
AD
B2
00
FE
A8
33
04
2C
50
2B
2F
E0
F0
D2
9D
EE
0A
06
AF
E5
AA
D0
EC
FB
10
F7
3C
3A
C9
E2
12
31
38
F0
A2
F8
B2
01
DC
3A
D3
CE
C1
19
0C
E4
BC
C0
15
BF
CB
AA
E4
4B
54
C6
BD
36
BF
A1
38
DB
E6
CA
42
16
07
1F
38
EF
AB
DA
4E
53
4B
F8
0F
36
F4
F1
E5
34
E3
D6
4D
E2
E7
2A
E1
10
F6
B6
EC
AE
A4
F3
E3
0F
32
E3
D9
E9
18
1C
B7
0C
18
3C
C8
CE
46
20
11
15
0F
1A
BF
E7
42
1E
D6
F9
25
34
F2
1F
45
2A
A9
EC
56
1D
49
C9
1E
B3
19
2F
4F
1F
D8
FA
20
B7
05
E4
C1
C1
D2
19
D8
45
F4
C5
AF
18
FD
F7
45
DA
E8
07
47
44
3B
22
EF
AB
1B
07
D8
E3
4B
CF
02
D9
DA
CD
F2
F3
00
38
49
E5
CA
AE
0F
F7
1E
28
13
24
31
BF
1A
24
16
C4
E2
CA
F4
FC
56
AD
2D
C8
CA
39
5F
DE
0A
B6
44
50
CC
B4
2C
EB
E3
3B
BB
B4
DD
3C
19
BB
3D
57
F4
1B
3C
08
FD
EC
2B
44
46
50
47
39
15
0A
0B
F1
40
C6
13
BA
0E
FF
39
E9
CC
C5
D4
08
15
20
47
46
D9
03
56
A8
C3
16
F0
3B
E3
3C
AD
1B
1E
05
42
03
B9
07
EF
0F
29
F4
10
C2
4B
D7
F2
10
58
CB
E0
CC
14
1F
FA
D4
3B
63
34
E1
55
37
24
22
A8
FA
04
0A
4B
57
07
30
46
F8
2D
DB
C7
3C
30
28
26
47
4C
0B
C8
D4
1F
09
06
03
B6
EA
C3
C0
CF
25
B6
FF
F9
3B
EE
E3
14
B9
A8
B9
46
48
D6
BB
2B
35
20
18
D6
BD
D7
B3
24
36
3F
21
07
B1
1C
D8
45
D6
B3
FD
27
D7
C5
C4
DA
17
B2
4E
42
06
AD
3E
10
CC
DE
06
22
BE
B5
14
08
F9
E4
EB
D9
D5
FB
19
FE
C6
4D
B7
12
FA
D5
31
07
A6
D8
F1
F8
00
F0
CB
17
0C
E3
BF
02
02
F9
54
CA
D4
2A
41
C5
36
F3
BF
01
4E
DF
0D
D8
2E
3F
30
28
D9
51
43
C0
59
A7
0B
B7
FD
AD
22
4E
F3
1A
E4
2F
FE
10
23
F3
E4
36
C6
C0
E1
DD
3B
46
40
D1
27
21
AE
01
FC
B9
44
B0
F5
DE
14
EA
C4
0C
1B
DF
44
59
EC
E4
41
BF
FC
10
EF
FC
0B
F4
0F
0C
CE
B8
CC
1B
1F
45
F1
39
AC
C8
C6
D1
33
D6
05
0A
20
07
F4
DA
EF
2B
09
3B
B8
BB
2F
18
4C
11
CE
16
FB
C1
B0
0D
4D
28
00
02
BF
E4
E0
4D
CC
E8
F6
BC
03
BA
00
F3
D6
27
DA
36
25
1B
20
CA
16
BF
D0
19
F4
0E
42
3F
CA
19
E5
23
DB
15
41
2A
D2
EE
CF
C8
BF
F6
4A
C7
3C
06
46
EE
F0
37
B0
48
07
E6
C2
40
CB
1F
4C
3E
23
B6
C5
E1
07
32
33
55
02
FD
F9
F7
4A
2E
14
46
3F
AE
BF
F4
E4
13
B9
B2
BD
4F
51
CA
06
DA
3B
F3
E6
AF
DB
FC
F9
C0
22
6A
02
CF
3A
34
13
CC
22
D6
FD
AD
D5
29
4F
01
E8
A9
10
09
F1
B9
27
57
2F
02
DB
CE
DC
CE
4D
B2
B0
4E
CD
0D
2D
FD
11
E5
AE
B0
45
33
4D
12
1B
3D
4D
3C
F9
4C
FF
3B
3C
28
38
A3
0D
C1
A5
30
C8
EE
12
10
DC
E5
C9
0B
45
F9
0C
ED
C7
CF
05
FE
2A
DD
CB
AD
09
33
0D
9C
AC
C7
C4
23
23
2E
26
4D
31
0A
46
41
26
1E
AB
FE
FE
CD
4E
03
53
4B
36
3D
B3
21
17
FE
F5
55
4E
C4
07
D8
37
19
E4
4F
A9
F4
B4
45
00
F4
FF
F1
3E
C5
00
D2
53
26
CD
2B
DB
F4
32
F5
BD
AF
3B
2F
04
25
E5
DB
B2
D1
FB
36
FB
1B
EC
D1
EE
5D
FA
1D
C9
07
0E
AD
FF
AA
38
D4
C2
F9
FE
31
01
30
CA
55
B2
EF
33
2C
C7
EB
D5
5A
17
CC
F4
19
D4
BE
9F
1B
06
23
35
E5
D1
2A
06
EC
B8
1B
0F
00
D0
C2
3F
EE
0F
F7
0C
36
DA
EA
4E
24
F3
46
DD
50
A8
C0
DA
42
12
FC
D5
2F
14
5C
44
F8
59
50
B3
20
DE
B9
F2
26
9F
08
2B
33
1E
51
1B
C0
37
CD
AD
C8
B4
BF
4A
0E
E5
4E
DC
FA
3C
AC
D3
25
D8
03
18
03
1E
46
F7
2E
D6
4A
AC
4F
15
F6
C5
EF
F6
F8
41
2F
34
B8
3B
FD
E2
F7
F4
19
D6
CD
FA
DB
0F
4E
15
52
3B
36
0D
37
AC
C3
E8
97
B3
3C
D2
23
1B
14
02
53
4F
40
B8
F1
AC
11
49
1C
4A
FC
E5
10
CA
D3
1C
F3
17
40
B7
C9
AB
F2
4E
1A
F3
DD
CF
E3
D4
C4
0D
51
2A
BB
AE
E6
E4
20
CA
D4
F1
F9
DC
DD
56
4F
F8
C6
25
10
AF
44
0A
53
B9
D1
EC
E7
42
F2
26
29
01
08
E0
4A
14
BD
CF
4B
B9
C3
F7
11
F3
B1
B2
3B
E4
C9
D9
DD
B5
1E
1C
02
01
17
50
D5
40
E4
CB
4C
F9
DF
2C
E5
36
1E
06
32
22
31
22
36
19
37
12
25
3D
FD
FD
49
DB
D3
EE
EF
03
B9
54
1F
49
27
4A
AF
31
3E
E4
BA
F9
1E
BF
EA
D8
CF
45
5A
C6
A4
13
15
29
35
30
04
44
2D
EA
54
D5
0F
13
ED
2B
02
A5
FB
15
BD
48
B5
11
D1
22
FD
AF
25
07
EE
3B
23
02
D7
1C
BC
0F
44
1E
F9
22
4A
C5
01
14
52
E2
2A
44
29
28
F1
12
29
B8
F0
E9
20
16
B8
AD
10
D6
B7
08
D2
52
23
53
F9
E8
1E
14
35
D6
23
9C
16
C5
E8
33
F6
97
A2
26
CB
D1
EE
52
BF
10
10
EC
EB
3E
22
B4
46
0A
AD
47
EA
B8
1C
34
33
BB
40
FF
F6
A8
E0
E7
A9
38
0C
22
D8
C9
F5
35
EE
90
12
2A
B5
B6
CF
C2
18
94
FC
FF
BF
54
1E
0C
EB
4A
55
5E
B3
FC
2B
E8
AF
E7
1E
B9
39
34
33
07
F4
DC
EA
E6
32
53
56
27
2F
24
B8
0B
1C
D6
62
FD
1E
3B
C1
32
D2
46
63
2A
C2
D6
30
A3
37
C4
51
12
F0
F6
40
E5
CF
C6
01
D5
3E
BF
B4
FF
C1
3F
4D
D6
DE
4D
0C
0D
E3
2B
52
45
0A
4C
EC
BB
38
EE
0E
50
D0
E5
35
14
35
AD
B9
BB
3A
09
B9
49
AD
54
B0
BA
CB
04
A7
16
13
DF
FD
10
F5
42
12
A5
C2
19
0E
FD
14
06
09
0F
2A
0D
55
1C
B1
EF
CE
1C
AF
EF
F9
29
DC
C6
EA
E6
F2
B0
EB
A9
B5
FB
AA
E5
E1
9F
34
A7
B0
BD
32
E5
2E
43
DE
15
56
07
21
2E
E7
E2
0F
A9
07
3F
27
BC
2B
04
B4
45
31
0F
CD
68
09
0D
49
A8
3B
29
A4
19
B0
C3
D1
3F
BD
0E
35
B8
41
19
A4
21
BC
03
26
39
E8
54
3F
39
10
2F
D3
A3
A9
05
00
D9
BC
67
1E
02
C2
BD
74
F6
43
CE
49
56
20
C0
55
14
91
2F
1B
E2
F5
D1
30
45
4A
3D
AE
1A
B5
C9
AA
04
E3
8D
E6
B8
34
2B
B8
61
36
E5
E4
D2
50
27
43
CA
A4
B0
B6
AB
FB
AA
D8
C2
25
F6
A0
20
A9
93
BD
09
AE
C3
D0
3E
D4
35
B7
F8
01
2E
40
CF
D5
3C
1C
01
DD
B7
0D
3C
AD
B7
22
46
B1
F9
41
2A
C2
F5
E4
FA
51
A8
E2
E4
A2
B7
26
FE
45
E5
4E
F6
BD
BA
1C
35
FD
5B
DC
FA
A1
4B
0D
BC
EF
27
28
BF
F7
1B
16
0D
C6
E6
22
E3
0D
34
26
07
BA
E6
46
03
30
F4
BE
35
0A
F4
BB
0B
EF
44
1C
C3
E7
AE
BA
A8
D3
BA
13
09
45
CC
03
1F
AB
2B
E1
3E
DE
1B
EB
F2
0F
4B
53
BC
05
16
F6
C8
CC
11
34
DD
1E
9F
EE
CB
29
34
F1
40
C1
FB
E4
0D
4B
2E
C8
C2
B8
E0
E6
39
4C
AF
3B
AA
3A
DC
29
E8
07
2E
20
A7
4D
DC
1E
30
AD
AE
02
3D
CC
D6
09
48
AB
B6
EE
3A
29
C0
32
CB
18
52
BC
15
DC
B0
3A
05
0C
53
B8
38
13
FC
15
34
BB
A9
BD
D3
C9
BD
3C
AA
D3
DC
CE
E3
38
DC
3B
05
2F
E9
03
A7
C9
AF
A0
1D
E2
D8
0A
B3
A9
4E
22
C4
D2
AF
F9
CB
A6
E7
9A
E7
F7
29
E8
24
0B
AD
0F
EA
C2
F7
48
ED
1F
26
D4
C2
C5
37
37
CC
FE
23
E4
E8
42
CB
CC
FC
ED
AB
EA
E4
F4
F6
42
46
A7
39
4A
02
4D
11
E9
A3
2A
0B
23
18
A2
1B
BD
08
3B
BD
B2
FD
E2
F8
01
10
09
D6
A5
51
D9
25
0C
01
14
CD
AF
9F
43
B2
45
D5
ED
40
F1
2E
28
49
1B
E2
34
1E
36
39
4F
39
E6
DC
29
13
52
04
E4
3D
B2
CA
AA
1C
AB
AD
DE
13
E4
E8
BF
19
AE
FA
CC
23
D4
C8
D6
1A
1F
F7
37
DA
FF
BE
27
47
BC
36
B8
D2
B7
AE
11
29
1C
E7
B7
0B
32
4B
EE
AD
F6
01
21
3C
39
F2
FC
24
19
04
3C
D7
BB
2E
B3
4D
9E
F9
A9
A8
B8
C0
37
F2
BB
FC
FC
55
31
2E
FC
1D
D3
28
DA
19
C8
D1
31
B4
25
2C
BE
38
05
B5
14
FF
39
3A
D9
D0
FB
0D
2D
CB
DB
06
F8
E6
2C
FA
A7
AD
E7
D6
04
BC
51
50
57
33
CB
C0
1D
27
C3
46
09
C6
F4
F0
FA
4F
3B
E8
0A
BB
E0
CC
AE
DF
FC
B0
D2
CD
16
CB
AE
01
15
58
10
E1
F9
C0
49
A0
22
A9
E2
E3
DE
27
ED
03
32
2C
56
DC
A9
CA
DA
3F
17
C4
52
B8
B9
3F
D6
47
29
F4
46
93
1A
08
A9
DC
AB
17
40
D3
DC
19
FD
30
BA
11
E4
B5
C5
9E
1F
02
CB
D1
00
CE
B1
EB
CB
A5
E7
C9
2B
E5
53
03
44
BA
05
38
A8
C4
ED
57
02
4B
36
43
F1
D2
33
B1
08
EC
4F
CD
24
B7
52
3E
D4
FE
E5
FE
2A
D0
C6
24
5C
C4
24
B8
C4
F7
F6
D3
1C
E6
B0
C1
1C
DB
2F
B8
47
B7
0B
09
E8
32
41
39
D6
96
01
43
31
3F
54
B0
CF
0D
2C
52
FA
35
4D
0F
29
B5
A4
AC
FE
32
D7
A6
31
4F
B0
4F
52
50
C4
B7
46
F9
D6
0C
FA
CB
01
49
11
F6
DB
12
34
07
DD
14
49
20
C1
20
20
C9
BF
1A
AD
04
34
21
A8
28
C6
D3
BB
24
EE
35
2A
AB
CC
24
4C
28
4E
04
04
AA
DF
E2
1D
2E
3C
24
E8
F2
BD
C3
EF
EE
30
E5
0D
C7
16
D4
3C
D5
B9
D8
B3
A6
2B
B8
39
B3
05
F9
E0
A4
36
F9
F4
4F
BF
08
D7
D5
11
14
3D
CE
0A
28
37
37
F3
35
2C
E7
1C
4F
E0
0E
0C
D1
04
4F
CC
B5
30
19
57
40
FB
09
21
F0
1B
55
E4
14
CE
B1
6A
CF
B9
F4
D8
E7
C2
12
C7
9E
C5
37
F2
D4
D6
E3
CD
43
49
FA
E6
AC
3C
3A
D1
C8
CF
13
AC
BC
2B
EA
0F
42
2D
0A
42
B2
A9
2A
07
F5
5A
EE
3C
D4
AD
10
D4
FC
09
15
E9
D5
D4
C3
33
12
EF
10
DF
F7
02
D5
F9
3A
4F
DF
DF
C6
3A
4B
12
F1
52
50
D7
02
02
08
D8
21
18
0A
4E
24
D9
E3
E2
12
48
1B
90
34
46
FF
E7
3A
A9
17
E5
9F
52
C3
B5
B1
FB
B8
B9
19
EA
49
2A
27
D2
EA
52
9C
20
A8
C0
CC
B5
3C
0D
D0
C8
F7
07
F9
07
EE
B6
38
32
D9
1C
55
D9
4E
29
B7
25
EF
16
E4
F5
28
D4
30
CC
DB
C4
E1
12
E6
4A
19
DA
F9
37
31
B3
EA
4A
D0
FB
AE
F1
D1
49
DB
C6
B5
DD
3E
00
DE
E8
A7
F2
33
2B
49
2B
F3
2F
DC
A7
D6
A7
0B
B2
B9
B6
31
E1
F5
3C
3E
35
10
CB
B9
F4
FA
DE
BA
DC
E7
0E
FB
FB
D6
02
CC
EA
3A
50
3A
31
3A
3C
D0
55
29
BB
1D
E2
DF
37
3F
E7
1C
3E
10
1D
1F
02
B6
11
CA
28
0F
EC
42
1D
C3
E3
18
3A
CC
FB
EA
3A
D5
5F
35
32
E6
D8
EB
F2
10
ED
DE
26
FC
20
D4
EA
12
C3
E1
10
33
44
FA
DB
EF
0F
04
02
B2
EB
F6
C2
F0
CA
25
2B
A8
AF
42
0C
B6
24
3B
48
54
C6
DF
46
DD
EE
21
BD
48
DC
D3
05
C2
05
14
04
64
44
56
06
46
FB
67
F8
CD
39
02
57
C6
DA
B9
E9
EF
0B
29
26
FA
D7
D0
50
2F
D4
2F
31
3B
A4
14
14
D8
ED
14
AA
01
00
BA
E9
FF
31
42
F1
E6
C3
07
30
36
47
0A
F8
1F
39
3F
AD
A4
F9
0A
40
BC
20
20
E9
12
36
3F
A8
48
38
1E
F2
07
FC
E9
AE
B3
BF
3A
ED
03
12
4B
34
EE
C2
3F
D5
13
17
01
EA
25
4B
1A
AB
F0
0E
1B
C4
51
A4
0E
A9
4A
D1
48
5E
06
19
2D
29
B3
C4
17
07
0B
A9
2D
E9
12
D6
0F
5A
17
56
13
D9
A3
29
B1
44
CE
10
21
38
1D
13
0A
DA
39
16
05
12
CD
C1
45
50
2D
F2
39
CA
2C
00
EF
A6
AE
3E
4A
BC
10
33
04
4B
C6
F4
DD
0B
F8
51
CE
F7
1E
C2
B8
39
D5
28
B3
13
54
23
D6
12
3F
BD
E2
A7
DB
C1
BE
A5
D8
CB
54
D5
42
03
D9
E0
EC
29
F9
2B
F3
25
41
FA
AC
23
C9
C4
E6
2B
F7
47
3D
F5
EC
4B
55
F5
F1
CB
CA
E1
25
DA
D5
DD
02
2F
E2
E5
DD
B2
0F
0B
B5
FD
29
AF
48
22
34
30
DA
F8
1A
BB
C9
08
0E
21
43
E1
0B
B5
A4
EC
42
CE
33
9D
CF
A7
B6
C5
EA
27
C4
F4
EB
E0
00
3D
12
D6
DD
32
45
DE
1F
F4
F3
17
3D
E4
25
D2
CB
42
2A
2C
1C
27
49
24
64
57
BD
F2
D0
04
07
4C
20
B2
D8
B4
AB
DC
A5
EF
03
18
26
B5
1B
C9
3C
06
1A
F4
2A
EE
50
3C
B8
F5
C1
0F
05
E9
02
4E
38
F3
AE
17
55
44
DD
F7
EB
18
46
BD
B9
F1
C3
3C
3C
DA
33
AD
27
DD
96
31
08
E9
1A
DC
C4
FB
B8
CA
CF
ED
1C
0B
05
4F
CE
2C
2C
27
BC
10
2A
3D
35
3B
28
E5
C9
BB
12
CE
C8
60
C1
DF
DC
00
E0
28
CD
4E
B2
DF
D5
1F
01
B4
EE
D2
F4
B0
00
38
BE
C8
D2
31
23
FE
41
38
B3
B5
FE
E7
37
32
3C
42
17
4E
35
E3
25
F0
5C
D9
E8
0A
BE
BF
15
03
B8
D7
D2
55
0C
F2
5E
4B
3D
35
4E
11
EE
B3
F7
CA
F0
2E
16
0F
19
E3
C5
B2
D7
28
40
32
C8
18
D2
BF
3A
AA
05
21
3A
24
BF
1B
C5
5E
B3
2B
2B
D6
2F
C9
BE
36
D9
5D
1E
3D
EB
37
E2
3F
EE
B9
3B
AD
BD
33
F4
ED
E0
45
E4
28
3A
4E
49
B0
C8
BF
55
F8
B2
4A
C1
C6
EF
B1
B8
D0
26
BE
D0
17
E6
18
53
C3
E2
BB
01
E4
DE
07
29
53
E5
42
1C
3D
B0
D4
D5
2A
F9
2E
00
F1
35
37
E0
14
37
41
E3
03
A2
BC
28
29
DB
C7
D2
28
34
BA
12
49
D5
B0
A7
A8
54
21
FA
53
C2
45
E1
D5
AF
D5
3E
AC
D4
33
34
B1
13
0A
DB
AC
23
C9
F1
1D
E0
DA
44
0E
FA
AB
16
1C
3E
07
42
50
20
C2
1B
34
FE
5A
21
A6
0A
29
24
DF
BD
0C
21
C6
1E
24
AA
C4
07
1B
C1
CA
B5
CA
2F
DB
1E
0F
FE
E5
23
4C
1D
4F
28
DA
19
51
24
12
21
26
C4
AE
48
C6
FB
37
20
BD
01
A9
01
B1
C5
E5
DA
32
50
FE
21
0A
2A
CE
F5
1E
DB
0D
4F
A0
4F
DD
3A
30
EF
EF
CC
32
31
28
1B
E9
AF
30
F2
0F
07
BD
2A
B1
30
2D
B7
1A
B3
27
04
C9
29
1E
1B
26
FF
50
1F
0C
32
0F
11
EF
D1
18
46
C8
06
4D
3E
AD
01
A1
A4
C0
D2
E6
F8
4E
2C
FE
E2
E7
45
B5
D0
FA
AB
F1
10
EF
B0
EE
B4
D3
DE
34
11
43
A3
32
46
0B
CF
2F
41
E1
16
34
DA
45
12
24
12
1E
F4
3E
D0
4A
DB
15
F4
3F
23
40
A8
D5
F5
A2
2A
CA
FA
20
CC
02
43
23
ED
EA
F6
5B
40
B7
02
03
BB
1D
BF
20
47
D6
D0
22
3C
12
06
32
35
28
53
A7
B9
4A
23
31
18
4B
0A
1D
B5
4C
CF
31
34
F7
33
03
1D
F4
AC
02
C7
C6
D6
3C
C7
05
59
E3
EC
32
47
E3
B5
36
28
46
06
CF
EC
5F
1D
0F
D9
22
2F
FB
DF
C6
DD
F9
2E
0A
DC
E3
DD
B4
3B
AC
3D
A8
0B
E5
B2
B3
EC
49
36
37
F3
ED
00
2E
E8
B8
3E
20
3A
B8
34
4D
1A
E3
F5
B1
55
49
F7
B3
A8
09
FC
0D
ED
0B
25
AD
4B
B0
C6
12
B7
1C
B5
10
33
EF
2F
B6
B5
5E
27
C6
65
F7
23
AC
37
D2
F1
FE
C1
B7
3F
17
1D
EF
C2
62
45
DE
AE
49
19
AB
3A
B4
DA
D2
39
28
B8
F4
F8
2C
BD
0B
EF
60
4C
27
FF
2B
12
D7
10
D7
A9
C5
B9
AE
FE
2D
BB
48
AF
3A
1B
18
54
1C
53
58
3E
3C
04
F7
FE
C1
C9
15
DC
ED
C7
0B
B1
DF
46
E6
41
1B
58
D6
01
B3
C0
DD
BB
60
40
DE
34
58
3F
B3
56
30
C1
30
3D
E5
CD
B5
F4
B4
E0
DC
B4
31
B4
32
DA
A8
2B
3A
DB
1B
3C
30
F1
B7
F9
AD
BE
C8
0E
40
BF
FC
CB
47
0F
C6
53
B9
BD
C2
D9
DC
2C
F3
D4
C4
0F
5E
FB
53
12
17
27
46
25
0A
51
F3
5F
0A
27
0C
EC
CA
00
27
C0
B8
D5
2C
DB
41
40
CD
46
E9
EE
20
4F
AF
DF
48
56
DA
FB
BC
DB
BA
A0
D5
BD
41
C0
25
1D
F9
35
EB
E3
C3
3C
42
39
22
39
F2
34
F1
43
C6
E5
DD
D3
CE
58
EE
E4
BA
19
15
E4
D8
FD
25
02
4F
4D
DB
C3
43
E5
EF
19
D6
0B
49
CC
50
28
A6
B9
C2
AE
49
B6
FC
16
E0
5A
ED
08
4A
07
E8
AE
D7
55
39
59
DD
DF
D5
D1
05
BE
C0
50
F0
02
B5
38
22
BA
2B
0E
EC
34
03
CF
45
EE
E2
E3
D1
CD
0A
0A
32
55
16
EB
A8
AC
E7
B6
C3
AC
DB
36
A3
FD
D4
AE
C4
42
D3
48
CA
0B
AB
D3
54
07
01
A8
C4
0B
BA
49
CB
3A
B1
DA
CF
C6
81
28
2B
D9
A6
F2
C9
34
18
3C
42
15
ED
BD
46
E3
FD
B2
F9
4A
13
A4
A2
B7
E2
D0
14
BE
F2
AF
DD
0E
37
D2
0D
AE
CF
5C
26
E7
E6
EB
36
2A
AA
94
20
AF
32
B6
19
4D
EA
B8
EF
BB
F1
35
E3
D9
B8
2E
B6
C6
12
D5
EA
A9
DC
AC
DC
04
BA
E6
1C
C2
12
15
0F
3C
B5
38
4C
CB
32
F7
A6
D9
E0
D9
1B
D3
FB
0A
2C
F9
28
BC
A3
03
40
A7
3C
F0
49
21
A7
CD
C4
FF
4A
A4
E3
E2
EB
4D
CE
2B
51
DE
D9
C4
B9
DB
42
2C
F4
B8
50
42
F3
41
28
E5
DC
44
21
27
DE
1E
2F
F5
25
F6
0D
AE
C0
DC
0D
52
AA
57
06
09
C2
32
D9
DA
BD
F2
40
30
D3
C8
3E
9A
0F
A6
2B
D9
CE
4D
A5
D1
47
F5
EC
E3
D2
08
05
10
FE
23
E0
CE
05
B8
A7
11
D7
2D
0C
39
BF
01
10
4D
4C
E6
DD
E7
E3
F2
09
ED
36
D0
1E
50
11
08
FE
19
FE
E2
C2
AC
ED
E6
D3
2B
AE
EF
2D
48
B8
18
4E
AF
B6
32
E9
ED
3D
E4
C3
EA
DC
DF
BC
13
F8
DE
31
E2
E5
EB
DB
02
F6
07
9F
B9
15
14
29
B8
4D
DF
FE
C8
FC
E7
55
10
D5
CB
3C
E0
F7
E4
52
B6
F6
3B
00
B8
16
AC
21
1F
AF
1F
4C
C6
25
00
14
2D
4D
0B
C8
0B
52
EA
B2
A4
5B
29
B9
CB
C4
30
3C
07
FB
39
D9
3A
33
2A
DE
ED
BD
16
32
C4
2A
92
EE
3F
F5
57
23
F3
E3
B7
BF
3A
21
CE
C3
0B
37
22
EE
D9
EF
09
A2
03
18
32
F6
18
CC
54
2D
D3
31
32
B6
C0
B6
3F
D3
FF
E5
A3
C4
BC
46
C0
B1
3E
17
43
F1
1C
07
09
38
BD
C7
28
BC
06
14
FC
16
3B
F5
54
BB
5A
CF
05
42
00
E0
35
1C
C4
AB
37
1D
F3
C6
2C
A2
BF
36
AD
DE
BB
F5
BC
46
05
E1
01
D9
05
3D
1B
00
21
4C
06
37
0C
07
E7
EE
F7
BD
31
B2
2E
52
FF
1A
CD
2D
EB
E0
44
42
D7
A9
52
B7
E7
C7
2F
CF
A8
0E
18
35
E4
06
B6
BB
0B
BD
56
38
D3
E1
F1
BA
D0
CC
6A
39
18
B3
E9
6C
E2
C5
BB
EB
2E
C6
44
09
2A
43
E6
CE
C0
37
44
EB
EF
65
ED
EC
F2
5E
1C
6E
CB
F2
15
F6
1D
F6
DD
13
FC
23
E5
4C
A9
C8
03
C7
43
79
08
B0
2A
53
04
CE
C7
B7
46
55
02
EC
DB
C5
AE
CE
45
D8
48
2C
39
E6
E6
D2
AE
25
C3
23
FD
35
E3
CC
29
02
5D
03
E0
D7
2A
B9
A7
F1
E2
11
53
09
A9
BE
CF
29
5F
3F
EF
FF
BA
38
A9
56
30
3B
BC
19
AA
52
B7
C5
2A
E1
B3
07
0D
D2
23
1B
AB
36
C7
09
4B
EA
40
F8
2C
E5
E5
1D
BC
3A
25
05
3F
AE
45
E5
DF
13
CF
33
2C
C7
3D
07
0E
E1
E1
BE
3B
AE
CB
AD
21
21
FB
0D
D0
40
2A
2F
AA
AE
0F
E7
E1
ED
2B
07
2C
D5
2A
DE
B2
B1
AD
C5
DE
BC
39
1A
30
12
E1
DD
F9
05
B5
00
B1
11
32
DA
F7
DD
E8
CC
B7
28
A8
D0
BD
3D
B0
F4
B0
E6
D3
41
F4
19
03
08
E7
F7
B6
48
09
F4
4E
E9
53
D1
ED
B8
AF
46
EC
AB
37
57
E8
0A
4A
B5
FC
F4
4D
EB
C3
4F
37
5A
2E
36
EF
38
26
40
4C
DA
02
0D
12
C8
D2
CD
F0
40
35
B3
21
AE
20
01
5B
D9
2D
54
C0
51
F8
08
1B
50
46
4B
40
F7
33
CC
CA
4C
C7
34
B5
20
DC
EB
1F
D4
26
F6
23
B1
21
DA
50
CC
DB
D8
34
F2
FC
AF
34
DF
25
D5
3F
23
EC
4F
2C
26
35
34
EC
F0
E4
C5
0C
CD
21
15
0A
34
F0
42
50
22
E6
45
52
F7
27
36
CC
26
FD
4C
DC
B5
B4
42
C6
43
54
A6
1F
D1
51
EA
C2
C3
DF
FA
3D
BF
2B
42
D3
C2
27
FC
D9
51
1F
45
F0
FD
D8
EB
BC
30
14
BF
E9
B6
C3
A2
E5
C9
B1
46
CD
0C
4C
3C
3D
C9
E9
F4
DC
C4
DF
24
25
11
3C
E4
4F
E1
D2
07
B8
4E
2D
E9
BF
B0
09
A3
CF
18
15
F1
25
45
1E
E0
E7
49
E5
51
B1
52
B9
54
D4
10
28
A7
CE
AA
07
C5
00
AF
46
DB
0C
A2
A9
50
45
35
4B
26
36
47
F0
25
57
FC
03
50
55
F2
AD
2F
2C
1F
3C
51
09
B1
BC
EC
E4
33
A5
FB
ED
ED
23
0C
A7
F6
D8
BC
42
B1
51
10
CE
21
C8
09
05
BB
50
48
19
F1
EC
2D
E5
CD
56
BA
46
CD
06
E5
0F
05
1B
43
BE
2A
50
71
3E
D0
09
46
B0
0D
2F
FD
AC
49
4E
C9
AD
15
2C
F0
0A
F4
DD
13
39
AB
BB
3F
D5
01
01
19
E5
AC
54
B9
2B
4B
02
FE
C1
13
39
B1
0D
2C
F0
2F
5E
3E
2A
28
3C
F1
BB
54
2B
FD
20
4B
56
EF
CB
30
04
E9
D6
3E
11
56
D6
55
AF
E0
DD
DB
16
E5
2E
29
D0
BE
07
B9
1C
52
3B
4D
F8
20
57
4A
E1
E6
32
CC
24
00
B7
09
FA
08
D5
26
1D
30
17
F5
12
2A
E7
43
4E
3E
66
EB
28
21
E5
DA
DC
0E
37
FA
44
AE
4C
3E
A9
1A
EF
B0
FF
4C
22
35
F2
26
15
59
E0
1C
EA
DE
CC
1C
2A
EA
E4
DE
B9
66
41
46
0E
C3
2D
C4
1F
27
23
13
AD
CA
1F
0B
29
C3
50
FF
2A
DA
5A
C7
46
E0
C7
2E
13
BB
D5
FF
E0
12
43
4F
35
C6
2C
E2
39
32
C4
D5
02
E2
D0
D9
E5
22
10
41
15
17
E5
24
FC
0C
3B
31
E3
D1
D3
05
C6
05
09
DB
22
3A
4B
38
5C
2B
D3
FC
19
F4
43
29
25
26
E6
0B
EC
E8
32
20
22
DA
B0
1E
D1
C5
2D
4C
C9
47
19
4A
56
58
2B
2A
08
CD
40
24
FF
AE
4F
21
C4
57
2A
18
88
C1
F2
E6
4D
30
14
41
C1
31
B6
49
25
3F
E5
CF
D5
FA
A6
C2
5B
26
34
17
E4
61
22
0C
F0
BE
2C
B9
30
3B
5F
0E
F6
46
3B
1C
4A
BE
06
1C
D2
E9
0C
3E
1A
3B
4F
ED
22
A0
05
A7
35
23
1A
E0
15
21
FB
3D
A3
07
4E
F1
17
D1
E2
C9
B8
3A
B0
BE
08
CB
1E
03
36
FB
1A
FB
1A
F4
C4
FA
11
31
3E
A6
9D
A6
49
EA
2D
CB
3F
ED
01
12
AF
0A
DA
F7
2E
17
51
E5
F3
26
C3
06
C6
A4
E9
C4
DE
D3
32
D0
24
3F
3A
E2
D5
49
35
23
44
0B
44
0A
3C
C5
B4
CB
A4
AF
D9
45
C9
47
01
B1
B6
BB
2A
CA
F1
14
C8
EE
F0
E3
32
F8
27
C3
37
BE
A6
C2
09
D5
15
D0
E1
C0
E1
40
5F
2A
3F
36
EF
3A
31
30
2C
44
D5
2F
CF
27
08
AA
DD
49
B2
49
28
AA
D8
EF
2D
B6
45
D1
F2
F2
34
0B
D1
53
0C
0B
D0
D0
D1
BC
58
4F
B8
35
D7
23
35
ED
BE
CD
4E
ED
0F
F0
F9
AF
32
43
38
BD
DC
48
51
53
1C
3A
23
F0
BF
42
23
4C
DE
22
17
37
BF
BE
16
E1
19
CF
56
B8
0F
31
13
56
AE
46
01
1D
EA
2C
E9
2F
5D
2A
D1
E3
09
EE
EB
1C
04
D8
3B
47
E4
FC
E3
FA
AB
CA
34
4F
51
F2
CE
37
2E
45
EB
0A
DE
A8
02
B8
E8
A6
AA
45
AE
E1
2C
E7
1B
F2
14
34
50
15
F7
E7
44
1F
F0
E3
3A
17
DC
4F
E3
DC
37
B6
37
05
20
0D
FB
36
1A
D3
DD
3D
1A
DA
E9
C2
EB
C4
06
56
C7
0C
B3
CE
ED
30
B6
00
1E
C5
C1
0A
31
BF
D1
BD
38
E6
E9
BE
3D
1B
39
04
E7
37
25
47
FB
F0
40
24
A3
A2
1A
47
4A
E9
9A
FB
EB
BD
B0
1A
14
AA
57
0D
A7
06
43
CA
19
2E
EC
50
FE
A9
0E
24
D7
1A
F0
B4
C2
10
33
C5
EB
24
C7
42
3E
F0
FF
EF
C0
BF
B3
EC
07
18
56
F5
D1
E7
2F
FB
1D
A8
D9
EA
9E
E8
F3
1D
D2
35
AE
36
D3
E5
42
1E
0F
54
CC
52
AB
32
44
37
4F
47
53
E0
BA
F2
1A
2A
37
AE
C1
E9
C4
18
FE
1A
1E
51
E2
F4
BE
04
CF
08
E3
4F
33
E5
C5
10
F2
26
D9
5B
AA
ED
CC
BC
1C
20
1B
42
C5
D2
56
C4
C1
A7
E1
E9
38
32
A4
28
DA
EA
BE
B5
B1
33
26
10
F7
3C
04
C8
EB
F9
3B
E4
3E
FD
BA
39
56
1A
ED
A2
FD
39
3F
3F
1C
A9
1C
E5
B5
E4
22
D7
AE
EB
3D
1E
D2
04
B2
3F
48
3A
29
D9
FB
BE
2E
C2
4E
2B
F7
E4
E6
DD
14
AC
EE
D9
30
C9
49
C6
CC
04
E7
D6
44
0F
23
B7
43
0A
2D
B7
3C
24
50
00
BB
14
3B
BF
FC
BC
45
10
F3
14
A5
01
AE
D3
B3
04
2B
CA
AC
38
FF
E1
51
0F
C4
A9
41
07
06
A5
3C
45
44
AD
DB
51
D4
EE
17
C5
C1
D1
09
1B
4E
FA
34
1D
26
C1
DD
17
C2
2B
EA
22
DF
D1
E5
D9
DE
35
B5
B1
FE
11
0D
E0
C8
F0
3A
2E
32
26
5E
F0
E7
AE
F2
AC
0C
03
4A
C3
FE
B0
29
CF
19
F7
0C
4E
43
57
40
0B
B2
24
C4
1A
B4
23
04
0C
41
EB
56
44
CE
22
CE
B2
12
D4
11
2C
B8
D5
19
33
1D
27
01
12
E1
18
AA
B4
0B
FF
B7
BF
F4
4B
C6
E3
48
28
D6
BF
25
D5
6B
BE
E9
C5
36
5E
25
C5
3B
74
BA
4E
CC
30
E7
41
DA
5F
38
3F
CA
29
49
E0
BD
E3
27
BC
AC
DE
0A
E8
3C
EF
04
C3
19
47
C0
B7
AF
22
E5
A9
0E
B3
45
44
46
57
40
4B
C8
0C
59
2E
1F
36
EB
28
3E
46
00
4C
2B
BC
AB
E5
B1
12
25
19
52
B7
08
39
3D
CC
FA
58
AC
AC
29
D1
C2
3C
29
EB
51
22
25
C7
2C
3B
E4
0F
D3
A7
0E
1D
FA
E4
1D
41
3D
BA
4A
A7
CB
5F
B3
BE
BB
BE
D6
1C
C7
D8
17
1E
F0
09
1C
E0
06
FD
46
4D
30
26
AF
14
CC
0A
D3
02
E0
2B
10
0A
0A
04
16
DC
20
33
C6
F5
B8
B5
E3
1F
47
42
FF
2C
D1
F6
57
F9
34
B4
05
02
DA
C4
F4
E1
15
CA
F5
F4
11
1C
F2
51
27
C5
2B
10
4F
2C
00
52
A7
E3
BA
13
C0
16
3E
4E
FD
06
BC
BE
ED
07
10
C9
C4
F6
37
1B
B4
20
E0
D1
E1
44
3A
4F
CC
04
EE
38
49
E6
E1
C8
12
E8
B8
25
28
16
24
36
E1
3F
12
31
18
D7
30
A9
D5
DF
6B
50
AF
C8
0A
01
07
3F
2B
14
E5
24
1A
DE
21
40
CC
49
50
CB
C6
1E
49
B6
E6
4B
FE
36
F0
0E
B6
0D
29
C6
EB
BC
29
51
51
B4
C1
04
14
0F
17
0B
F7
36
C4
E3
53
09
CD
0F
CB
4A
D8
18
3C
18
1C
20
F1
F9
F8
AF
B2
DC
08
37
E4
46
48
F6
B2
25
DF
15
A7
EF
EE
46
14
20
4A
D2
AF
B8
C8
53
EC
B7
35
A8
E3
DC
09
B9
2E
1C
12
3B
29
F4
DB
CB
CD
26
C8
C4
C8
B2
3D
19
EC
53
C7
D2
DF
28
39
3C
04
11
0C
C5
C6
37
E9
BF
E7
E5
EB
EC
19
2C
C2
E0
B5
F0
D3
AF
E5
FE
C4
31
CB
3C
51
EB
DE
25
33
1C
E2
FC
B1
C0
B2
14
57
3E
01
F3
54
26
B6
35
AA
51
D2
2A
5E
A6
39
CE
02
D6
F2
2C
3C
EF
DB
14
DD
C7
09
E6
F3
3A
43
D8
B8
13
F8
8A
2C
B6
2B
2D
C1
FF
19
1C
0F
17
3F
57
02
D8
C2
3D
C7
B5
FC
E7
57
EB
F2
FC
3B
B5
F1
55
E9
73
F4
D8
C6
C5
B6
0C
2F
20
C9
05
CA
34
FB
31
D6
F7
D0
D2
65
FE
02
DC
59
AB
55
C9
C1
EE
4A
31
E4
23
EE
4D
BE
C2
F5
CC
09
CD
4A
18
54
E3
0E
D8
C6
4F
0D
E0
11
CC
22
AD
29
E0
FB
00
EC
15
30
3D
B0
14
30
EA
E6
31
29
F6
1A
24
F4
DE
4C
28
5C
EC
E3
A6
4D
15
C2
F2
FF
24
1D
2B
BB
B4
EE
CE
37
20
43
C8
46
CF
DA
BA
43
CE
F1
3A
19
56
13
4B
EB
32
E5
3A
35
C8
18
E5
A8
DF
C2
E5
4D
CE
C3
2B
FA
08
35
FD
E5
F1
13
3A
15
11
3B
06
A7
CA
C0
26
BF
CE
AA
48
43
FB
B8
12
A4
F7
C8
16
35
CC
44
0D
23
F4
48
D1
2D
05
FB
55
15
EB
3B
0F
F2
1C
FA
FC
2D
E0
03
F0
C6
CC
CD
CA
A0
3D
AA
D8
4E
16
13
EC
1A
A4
06
A6
E6
A4
F6
56
A2
FC
BE
E5
A8
CE
D1
F5
B3
D5
48
2F
39
C7
45
DE
E1
C3
3D
ED
E2
F5
38
BE
02
FC
08
BB
18
A7
EA
21
34
E2
20
4E
39
0F
D0
F6
FD
2C
0B
AC
2A
B7
07
11
14
EA
F6
E5
38
C7
A2
CB
20
1D
C3
CB
EE
24
0E
96
2B
AC
D3
9E
E5
B0
C3
22
33
12
38
B8
F9
1D
DB
20
18
48
E8
51
1C
4A
BF
0C
DE
F8
AD
BB
CD
A4
0C
CD
03
98
3F
4E
CC
D8
74
37
B9
3A
23
17
AB
D2
EF
4C
4A
BD
C5
FB
D5
C8
12
22
50
DA
E3
BB
AD
BF
D3
22
04
13
4D
CF
EF
30
B7
11
D6
2B
36
26
0D
CA
B2
EF
D5
00
DE
C5
0F
E5
C6
2D
F5
23
A6
06
EC
E7
33
AB
A6
B2
39
3C
11
11
DB
B7
E6
2E
25
A7
BB
AB
BB
33
3F
AA
E5
28
58
06
08
AD
2B
10
31
F0
F6
2F
0E
09
B3
E0
B3
1D
51
2E
C8
43
AE
32
3E
E0
B9
07
13
35
37

