358
074
3D2
37B
3F4
376
3C7
01A
3C4
074
0E7
347
360
0C3
01A
004
31E
047
2E4
339
009
2BB
034
343
3CC
29A
051
022
377
03B
025
3E4
3E6
04D
369
3E6
3B1
392
015
02B
046
38D
03A
0E9
093
332
3D6
015
04A
388
03B
037
066
08F
2DE
010
097
009
3D3
3CF
3A3
0A7
053
31D
3F6
05B
3BA
35E
31B
3BC
3DE
060
3EA
360
37F
03A
3FB
02A
3A5
382
14F
369
3F4
3DB
383
0C7
016
06C
05E
078
015
384
05E
058
0EA
004
0A4
03F
3B7
03D
3D9
3E5
3D7
030
326
3D0
019
3DB
31E
036
020
3E2
073
2AC
024
3A7
33A
381
07F
037

