FF
46
EC
C6
A8
E1
EA
48
8F
58
8E
FA
0D
70
CE
21
B3
2B
D7
24
2A
29
30
CB
60
F1
D7
CF
28
B1
00
7F
CC
C7
AD
4F
8A
4F
B5
2F
52
1F
2B
B6
81
D8
90
E6
48
39
EF
B0
0B
2B
36
D1
59
86
1C
D9
54
D6
EF
34
08
E1
53
FA
20
D8
43
8E
81
7F
2B
F6
6B
F5
F4
EE
EF
FB
DF
31
57
0D
60
CB
2C
5A
9D
A9
DD
EC
21
22
DF
C9
6C
AD
23
4B
23
68
81
E6
E9
37
8C
36
A3
A7
2E
BE
5A
31
C9
BA
40
83
DA
35
CA
20
54
B1
8C
CC
AC
55
7F
33
AD
66
13
DC
C1
40
00
EF
99
D2
48
B4
93
FD
32
4D
3E
F9
0F
81
58
10
50
AA
E5
B8
56
37
D7
18
A7
16
93
D6
FB
E7
D8
2D
0E
8C
FD
C7
27
E8
4D
18
0C
D0
35
17
C3
1C
63
06
08
36
49
7F
BE
C4
C4
8D
66
51
C5
DB
A1
E5
D1
81
94
49
E5
58
72
1F
09
0D
48
09
18
46
60
A9
B3
F9
5D
5F
91
56
13
F7
C6
1C
BA
D1
FF
12
3B
60
28
05
F0
9B
3C
1D
58
2C
42
10
DB
CB
67
BE
2F
39
46
B1
0D
BB
3C
81
28
35
F9
FF
8D
56
D6
06
37
A1
EE
D9
7E
39
07
FE
92
E5
2F
9E
D4
3C
49
74
06
BC
A9
A1
2C
98
42
FA
53
7F
C4
D9
55
87
09
E3
BF
D9
5B
7F
99
BA
76
FF
59
E6
E8
51
C3
C1
D9
40
F0
8A
0B
15
49
D2
4D
4B
9D
06
3D
DE
21
29
D3
E4
40
46
31
C9
D6
28
15
81
E3
B4
D1
1B
1E
26
D3
E1
C2
23
28
1B
A9
1E
AA
AC
12
48
9C
DD
F8
A1
81
E3
0A
47
63
D5
46
32
AD
58
42
28
F4
5A
DA
9C
E9
D8
94
8E
13
2C
35
8F
15
A9
41
C1
97
DB
81
28
07
57
F3
3C
D0
2E
8D
26
E2
5F
44
F1
CC
E5
3E
34
2E
09
44
39
45
16
A7
54
07
ED
E9
9A
5B
57
BC
74
E2
05
CA
24
54
52
F5
33
5C
AC
81
F6
85
C0
0E
34
04
1E
22
D5
A8
FA
C9
53
B7
45
4E
FB
BE
B3
48
0A
21
E9
DE
97
54
8A
97
BD
54
AB
DF
09
FB
81
5B
BD
A0
8D
24
06
E9
5B
C1
9C
57
32
50
6B
03
AA
7D
F6
EC
C8
64
BA
02
98
BD
65
E6
B3
F6
AF
32
FD
31
53
52
81
23
CC
7C
D4
0E
3C
E1
A6
78
A1

